{
  "version": "1.0",
  "truncation": null,
  "padding": null,
  "added_tokens": [
    {
      "id": 0,
      "content": "[PAD]",
      "single_word": false,
      "lstrip": false,
      "rstrip": false,
      "normalized": false,
      "special": true
    },
    {
      "id": 1,
      "content": "[UNK]",
      "single_word": false,
      "lstrip": false,
      "rstrip": false,
      "normalized": false,
      "special": true
    },
    {
      "id": 2,
      "content": "[BOS]",
      "single_word": false,
      "lstrip": false,
      "rstrip": false,
      "normalized": false,
      "special": true
    },
    {
      "id": 3,
      "content": "[EOS]",
      "single_word": false,
      "lstrip": false,
      "rstrip": false,
      "normalized": false,
      "special": true
    }
  ],
  "normalizer": null,
  "pre_tokenizer": {
    "type": "ByteLevel",
    "add_prefix_space": true,
    "trim_offsets": true,
    "use_regex": true
  },
  "post_processor": null,
  "decoder": {
    "type": "ByteLevel",
    "add_prefix_space": true,
    "trim_offsets": true,
    "use_regex": true
  },
  "model": {
    "type": "BPE",
    "dropout": null,
    "unk_token": "[UNK]",
    "continuing_subword_prefix": null,
    "end_of_word_suffix": null,
    "fuse_unk": false,
    "byte_fallback": false,
    "ignore_merges": false,
    "vocab": {
      "[PAD]": 0,
      "[UNK]": 1,
      "[BOS]": 2,
      "[EOS]": 3,
      "!": 4,
      "\"": 5,
      "#": 6,
      "$": 7,
      "%": 8,
      "&": 9,
      "'": 10,
      "(": 11,
      ")": 12,
      "*": 13,
      "+": 14,
      ",": 15,
      "-": 16,
      ".": 17,
      "/": 18,
      "0": 19,
      "1": 20,
      "2": 21,
      "3": 22,
      "4": 23,
      "5": 24,
      "6": 25,
      "7": 26,
      "8": 27,
      "9": 28,
      ":": 29,
      ";": 30,
      "<": 31,
      "=": 32,
      ">": 33,
      "?": 34,
      "@": 35,
      "A": 36,
      "B": 37,
      "C": 38,
      "D": 39,
      "E": 40,
      "F": 41,
      "G": 42,
      "H": 43,
      "I": 44,
      "J": 45,
      "K": 46,
      "L": 47,
      "M": 48,
      "N": 49,
      "O": 50,
      "P": 51,
      "Q": 52,
      "R": 53,
      "S": 54,
      "T": 55,
      "U": 56,
      "V": 57,
      "W": 58,
      "X": 59,
      "Y": 60,
      "Z": 61,
      "[": 62,
      "\\": 63,
      "]": 64,
      "^": 65,
      "_": 66,
      "`": 67,
      "a": 68,
      "b": 69,
      "c": 70,
      "d": 71,
      "e": 72,
      "f": 73,
      "g": 74,
      "h": 75,
      "i": 76,
      "j": 77,
      "k": 78,
      "l": 79,
      "m": 80,
      "n": 81,
      "o": 82,
      "p": 83,
      "q": 84,
      "r": 85,
      "s": 86,
      "t": 87,
      "u": 88,
      "v": 89,
      "w": 90,
      "x": 91,
      "y": 92,
      "z": 93,
      "{": 94,
      "|": 95,
      "}": 96,
      "~": 97,
      "¡": 98,
      "¢": 99,
      "£": 100,
      "¤": 101,
      "¥": 102,
      "¦": 103,
      "§": 104,
      "¨": 105,
      "©": 106,
      "ª": 107,
      "«": 108,
      "¬": 109,
      "®": 110,
      "¯": 111,
      "°": 112,
      "±": 113,
      "²": 114,
      "³": 115,
      "´": 116,
      "µ": 117,
      "¶": 118,
      "·": 119,
      "¸": 120,
      "¹": 121,
      "º": 122,
      "»": 123,
      "¼": 124,
      "½": 125,
      "¾": 126,
      "¿": 127,
      "À": 128,
      "Á": 129,
      "Â": 130,
      "Ã": 131,
      "Ä": 132,
      "Å": 133,
      "Æ": 134,
      "Ç": 135,
      "È": 136,
      "É": 137,
      "Ê": 138,
      "Ë": 139,
      "Ì": 140,
      "Í": 141,
      "Î": 142,
      "Ï": 143,
      "Ð": 144,
      "Ñ": 145,
      "Ò": 146,
      "Ó": 147,
      "Ô": 148,
      "Õ": 149,
      "Ö": 150,
      "×": 151,
      "Ø": 152,
      "Ù": 153,
      "Ú": 154,
      "Û": 155,
      "Ü": 156,
      "Ý": 157,
      "Þ": 158,
      "ß": 159,
      "à": 160,
      "á": 161,
      "â": 162,
      "ã": 163,
      "ä": 164,
      "å": 165,
      "æ": 166,
      "ç": 167,
      "è": 168,
      "é": 169,
      "ê": 170,
      "ë": 171,
      "ì": 172,
      "í": 173,
      "î": 174,
      "ï": 175,
      "ð": 176,
      "ñ": 177,
      "ò": 178,
      "ó": 179,
      "ô": 180,
      "õ": 181,
      "ö": 182,
      "÷": 183,
      "ø": 184,
      "ù": 185,
      "ú": 186,
      "û": 187,
      "ü": 188,
      "ý": 189,
      "þ": 190,
      "ÿ": 191,
      "Ā": 192,
      "ā": 193,
      "Ă": 194,
      "ă": 195,
      "Ą": 196,
      "ą": 197,
      "Ć": 198,
      "ć": 199,
      "Ĉ": 200,
      "ĉ": 201,
      "Ċ": 202,
      "ċ": 203,
      "Č": 204,
      "č": 205,
      "Ď": 206,
      "ď": 207,
      "Đ": 208,
      "đ": 209,
      "Ē": 210,
      "ē": 211,
      "Ĕ": 212,
      "ĕ": 213,
      "Ė": 214,
      "ė": 215,
      "Ę": 216,
      "ę": 217,
      "Ě": 218,
      "ě": 219,
      "Ĝ": 220,
      "ĝ": 221,
      "Ğ": 222,
      "ğ": 223,
      "Ġ": 224,
      "ġ": 225,
      "Ģ": 226,
      "ģ": 227,
      "Ĥ": 228,
      "ĥ": 229,
      "Ħ": 230,
      "ħ": 231,
      "Ĩ": 232,
      "ĩ": 233,
      "Ī": 234,
      "ī": 235,
      "Ĭ": 236,
      "ĭ": 237,
      "Į": 238,
      "į": 239,
      "İ": 240,
      "ı": 241,
      "Ĳ": 242,
      "ĳ": 243,
      "Ĵ": 244,
      "ĵ": 245,
      "Ķ": 246,
      "ķ": 247,
      "ĸ": 248,
      "Ĺ": 249,
      "ĺ": 250,
      "Ļ": 251,
      "ļ": 252,
      "Ľ": 253,
      "ľ": 254,
      "Ŀ": 255,
      "ŀ": 256,
      "Ł": 257,
      "ł": 258,
      "Ń": 259,
      "he": 260,
      "Ġt": 261,
      "Ġa": 262,
      "Ġs": 263,
      "Ġw": 264,
      "nd": 265,
      "Ġthe": 266,
      "čĊ": 267,
      "ed": 268,
      "Ġand": 269,
      "Ġto": 270,
      "Ġb": 271,
      "in": 272,
      "Ġh": 273,
      "Ġwa": 274,
      "re": 275,
      "ou": 276,
      "Ġf": 277,
      "it": 278,
      "ĠT": 279,
      "Ġl": 280,
      "Ġc": 281,
      "ĠčĊ": 282,
      "Ġd": 283,
      "er": 284,
      "Ġhe": 285,
      "Ġm": 286,
      "Ġp": 287,
      "Ġwas": 288,
      "om": 289,
      "Ġo": 290,
      "ay": 291,
      "ĠThe": 292,
      "ar": 293,
      "is": 294,
      "ing": 295,
      "il": 296,
      "Ġg": 297,
      "id": 298,
      "ĠS": 299,
      "at": 300,
      "en": 301,
      "Ġn": 302,
      "Ġsa": 303,
      "Ġha": 304,
      "an": 305,
      "im": 306,
      "or": 307,
      "on": 308,
      "Ġit": 309,
      "Ġth": 310,
      "ĠH": 311,
      "ll": 312,
      "Ġ\"": 313,
      "le": 314,
      "Ġher": 315,
      "ot": 316,
      "et": 317,
      "ĠShe": 318,
      "ir": 319,
      "ĠHe": 320,
      "ĠThey": 321,
      "es": 322,
      "Ġin": 323,
      "ver": 324,
      "ut": 325,
      "ow": 326,
      "ck": 327,
      "ĠL": 328,
      "Ġe": 329,
      "Ġu": 330,
      "ld": 331,
      "Ġy": 332,
      "oo": 333,
      "Ġsaid": 334,
      "ig": 335,
      "ily": 336,
      "Ġr": 337,
      "Ġbe": 338,
      "ĠI": 339,
      "am": 340,
      "Ġst": 341,
      "ce": 342,
      "ke": 343,
      "Ġshe": 344,
      "ve": 345,
      "pp": 346,
      "ith": 347,
      "Ġwith": 348,
      "ĠO": 349,
      "ĠOn": 350,
      "Ġon": 351,
      "ĠLily": 352,
      "Ġyou": 353,
      "Ġof": 354,
      "ked": 355,
      "ri": 356,
      "Ġso": 357,
      "nt": 358,
      "Ġhis": 359,
      "Ġpl": 360,
      "ad": 361,
      "ĠB": 362,
      "very": 363,
      "Ġday": 364,
      "Ġthat": 365,
      "Ġup": 366,
      "Ġplay": 367,
      "Ġhad": 368,
      "st": 369,
      "Ġthey": 370,
      "Ġwe": 371,
      "Ġmom": 372,
      "ĠM": 373,
      "Ġfor": 374,
      "el": 375,
      "un": 376,
      "ould": 377,
      "'s": 378,
      "my": 379,
      "Ġli": 380,
      "ch": 381,
      "ent": 382,
      "Ġhapp": 383,
      "Ġwant": 384,
      "itt": 385,
      "Ġsh": 386,
      "out": 387,
      "her": 388,
      "Ġdo": 389,
      "ly": 390,
      "Ġnot": 391,
      "ome": 392,
      "se": 393,
      "Ġvery": 394,
      "ound": 395,
      "end": 396,
      "all": 397,
      "Ġwh": 398,
      "ime": 399,
      "ittle": 400,
      "Ġk": 401,
      "Ġtime": 402,
      "Ġlittle": 403,
      "al": 404,
      "Ġthere": 405,
      "ĠA": 406,
      "Ġne": 407,
      "ht": 408,
      "Ġre": 409,
      "ĠIt": 410,
      "Ġhappy": 411,
      "Ġsm": 412,
      "Ġbig": 413,
      "Ġis": 414,
      "Ġbut": 415,
      "ack": 416,
      "Ġan": 417,
      "Ġsaw": 418,
      "riend": 419,
      ".\"": 420,
      "Ġfriend": 421,
      "ry": 422,
      "Ġas": 423,
      "ra": 424,
      "ide": 425,
      "ĠOne": 426,
      "ake": 427,
      "'t": 428,
      "!\"": 429,
      "ug": 430,
      "ĠTim": 431,
      "Ġloo": 432,
      "ved": 433,
      "ter": 434,
      "Ġwere": 435,
      "ore": 436,
      "ĠOnce": 437,
      "Ġlo": 438,
      "ĠJ": 439,
      "ec": 440,
      "Ġhim": 441,
      "Ġtoo": 442,
      "Ġgo": 443,
      "Ġbo": 444,
      "Ġse": 445,
      "irl": 446,
      "Ġare": 447,
      "Ġj": 448,
      "ard": 449,
      "Ġwanted": 450,
      "ill": 451,
      "Ġgirl": 452,
      "Ġupon": 453,
      "Ġthem": 454,
      "Ġout": 455,
      "ĠTom": 456,
      "Ġat": 457,
      "ur": 458,
      "ind": 459,
      "Ġtheir": 460,
      "fu": 461,
      "Ġsp": 462,
      "ĠBen": 463,
      "way": 464,
      "Ġsmil": 465,
      "Ġdid": 466,
      "Ġcould": 467,
      "hen": 468,
      "Ġhave": 469,
      "ain": 470,
      "art": 471,
      "Ġex": 472,
      "hed": 473,
      "rom": 474,
      "Ġwent": 475,
      "Ġar": 476,
      "ic": 477,
      "Ġcan": 478,
      "ĠW": 479,
      "lp": 480,
      "ful": 481,
      "ood": 482,
      "?\"": 483,
      "hing": 484,
      "Ġfriends": 485,
      "Ġnam": 486,
      "ĠBut": 487,
      "ight": 488,
      "Ġall": 489,
      "Ġhelp": 490,
      "Ġkn": 491,
      "um": 492,
      "one": 493,
      "ark": 494,
      "Ġback": 495,
      "Ġsay": 496,
      "You": 497,
      "Ġfun": 498,
      "Ġcl": 499,
      "are": 500,
      "Ġno": 501,
      "Ġle": 502,
      "ĠTimmy": 503,
      "op": 504,
      "Ġsmiled": 505,
      "Ġsc": 506,
      "Ġnamed": 507,
      "Ġal": 508,
      "oug": 509,
      "Ġloved": 510,
      "side": 511,
      "elt": 512,
      "Ġman": 513,
      "Ġasked": 514,
      "ick": 515,
      "Ġtoy": 516,
      "Ġlike": 517,
      "Ġfe": 518,
      "Ġfelt": 519,
      "Ġlooked": 520,
      "Ġsome": 521,
      "Ġaround": 522,
      "Ġsee": 523,
      "Ġme": 524,
      "ame": 525,
      "omet": 526,
      "Ġro": 527,
      "Ġbr": 528,
      "ure": 529,
      "Ġbir": 530,
      "get": 531,
      "ice": 532,
      "Ġboy": 533,
      "Ġwould": 534,
      "Ġstart": 535,
      "ong": 536,
      "Ã¢": 537,
      "âĤ": 538,
      "âĤ¬": 539,
      "ss": 540,
      "Ġbird": 541,
      "Ġsomet": 542,
      "Ġfa": 543,
      "dd": 544,
      "ings": 545,
      "Ġag": 546,
      "Ġwor": 547,
      "Ġwhat": 548,
      "ĠMom": 549,
      "ade": 550,
      "Ġmake": 551,
      "king": 552,
      ",\"": 553,
      "ie": 554,
      "own": 555,
      "Ġtre": 556,
      "Ġran": 557,
      "gether": 558,
      "ĠYou": 559,
      "Ġaway": 560,
      "ag": 561,
      "ared": 562,
      "Ġsays": 563,
      "Ġstarted": 564,
      "oud": 565,
      "if": 566,
      "Ġmade": 567,
      "Ġcar": 568,
      "Ġsomething": 569,
      "Ġtogether": 570,
      "ited": 571,
      "ther": 572,
      "Ġpark": 573,
      "Ġco": 574,
      "Ġsad": 575,
      "Ġother": 576,
      "Ġnew": 577,
      "ĠE": 578,
      "Ġexc": 579,
      "Ġput": 580,
      "Ġfrom": 581,
      "Ġpr": 582,
      "ell": 583,
      "Ġla": 584,
      "Ġhug": 585,
      "ble": 586,
      "Ġmu": 587,
      "ook": 588,
      "ach": 589,
      "Ġagain": 590,
      "Ġhome": 591,
      "Ġwhen": 592,
      "ĠF": 593,
      "Ġgood": 594,
      "hat": 595,
      "ep": 596,
      "Ġwho": 597,
      "est": 598,
      "ried": 599,
      "Ġfound": 600,
      "Ġfl": 601,
      "Ġthen": 602,
      "Ġch": 603,
      "Ġdec": 604,
      "pped": 605,
      "Ġwal": 606,
      "as": 607,
      "ĠD": 608,
      "Ġget": 609,
      "qu": 610,
      "Ġplaying": 611,
      "ought": 612,
      "pl": 613,
      "ally": 614,
      "Ġsw": 615,
      "ĠSu": 616,
      "ous": 617,
      "nn": 618,
      "Ġthings": 619,
      "Ġexcited": 620,
      "Ġliked": 621,
      "Ġgot": 622,
      "uck": 623,
      "ro": 624,
      "ĠSam": 625,
      "ided": 626,
      "Ġdecided": 627,
      "Ġbl": 628,
      "ave": 629,
      "Ġcame": 630,
      "Ġevery": 631,
      "ara": 632,
      "Ġyour": 633,
      "ax": 634,
      "Ġv": 635,
      "Ġscared": 636,
      "ĠAnn": 637,
      "ust": 638,
      "Ġone": 639,
      "Ġdog": 640,
      "Ġdown": 641,
      "ouse": 642,
      "ny": 643,
      "Ġfind": 644,
      "Ġcare": 645,
      "Ġbec": 646,
      "ist": 647,
      "Ġthan": 648,
      "Ġfeel": 649,
      "ap": 650,
      "Ġdad": 651,
      "ĠSara": 652,
      "Ġab": 653,
      "Ġmy": 654,
      "Ġlook": 655,
      "Ġke": 656,
      "ĠAnna": 657,
      "our": 658,
      "Ġwill": 659,
      "arn": 660,
      "Ġgr": 661,
      "nder": 662,
      "ĠMax": 663,
      "Ġgra": 664,
      "ways": 665,
      "ess": 666,
      "Ġdidn": 667,
      "Ġpo": 668,
      "fe": 669,
      "Ġalways": 670,
      "Ġtook": 671,
      "Ġabout": 672,
      "ant": 673,
      "bb": 674,
      "Ġlot": 675,
      "Ġmommy": 676,
      "Ġtoys": 677,
      "Ġkne": 678,
      "ers": 679,
      "ise": 680,
      "ĠSo": 681,
      "Ġbu": 682,
      "ite": 683,
      "Ġoutside": 684,
      "Ġtree": 685,
      "Ġthought": 686,
      "Ġball": 687,
      "Ġmore": 688,
      "eci": 689,
      "ened": 690,
      "ched": 691,
      "Ġta": 692,
      "Ġold": 693,
      "Ġho": 694,
      "Ġlearn": 695,
      "ret": 696,
      "Ġint": 697,
      "ged": 698,
      "ĠWhen": 699,
      "Ġpu": 700,
      "Ġknow": 701,
      "ĠJo": 702,
      "Ġlaug": 703,
      "Ġtake": 704,
      "ecial": 705,
      "Ġspecial": 706,
      "Ġsor": 707,
      "Ġcat": 708,
      "dden": 709,
      "Ġknew": 710,
      "ive": 711,
      "ĠHer": 712,
      "ia": 713,
      "Ġpe": 714,
      "Ġany": 715,
      "ddenly": 716,
      "Ġtr": 717,
      "fter": 718,
      "Ġhow": 719,
      "au": 720,
      "ma": 721,
      "Ġshow": 722,
      "ink": 723,
      "Ġsorry": 724,
      "Ġtw": 725,
      "Ġmuch": 726,
      "ĠJack": 727,
      "ish": 728,
      "Ġrun": 729,
      "and": 730,
      "ĠEvery": 731,
      "Ġhand": 732,
      "Ġsl": 733,
      "ven": 734,
      "Ġhouse": 735,
      "Ġor": 736,
      "Ġop": 737,
      "Ġsk": 738,
      "Ġmo": 739,
      "Ġclo": 740,
      "Ġsun": 741,
      "Ġinto": 742,
      "Ġtried": 743,
      "Ġinside": 744,
      "ate": 745,
      "Ġtold": 746,
      "Ġwater": 747,
      "Ġthis": 748,
      "Ġen": 749,
      "ank": 750,
      "Ġif": 751,
      "Ġproud": 752,
      "ump": 753,
      "Ġqu": 754,
      "Ġover": 755,
      "Ġcouldn": 756,
      "dy": 757,
      "Ġgave": 758,
      "Ġheard": 759,
      "Ġnever": 760,
      "by": 761,
      "Ġeach": 762,
      "ace": 763,
      "Ġroom": 764,
      "ty": 765,
      "Ġexpl": 766,
      "here": 767,
      "Ġeat": 768,
      "ĠSuddenly": 769,
      "ĠWe": 770,
      "other": 771,
      "ause": 772,
      "Ġpick": 773,
      "ion": 774,
      "Ġpret": 775,
      "Ġplayed": 776,
      "ge": 777,
      "etter": 778,
      "ĠThen": 779,
      "Ġjust": 780,
      "ak": 781,
      "ĠMia": 782,
      "Ġhugged": 783,
      "Ġgre": 784,
      "Ġoff": 785,
      "Ġcom": 786,
      "Ġwat": 787,
      "oth": 788,
      "Ġbox": 789,
      "Ġnice": 790,
      "ĠFrom": 791,
      "ue": 792,
      "'m": 793,
      "Ġstr": 794,
      "Ġbecause": 795,
      "Ġneed": 796,
      "ĠHis": 797,
      "ile": 798,
      "Ġmany": 799,
      "ĠAnd": 800,
      "Ġfo": 801,
      "uc": 802,
      "Ġjo": 803,
      "Ġbear": 804,
      "Ġsmall": 805,
      "iz": 806,
      "ving": 807,
      "Ġlong": 808,
      "ine": 809,
      "gry": 810,
      "sed": 811,
      "imal": 812,
      "ort": 813,
      "Ġanimal": 814,
      "Ġsn": 815,
      "ough": 816,
      "Ġtry": 817,
      "Ġunt": 818,
      "ild": 819,
      "sel": 820,
      "urt": 821,
      "ĠC": 822,
      "Ġuntil": 823,
      "Ġkind": 824,
      "Ġlearned": 825,
      "Ġim": 826,
      "ĠÃ¢": 827,
      "Ġlove": 828,
      "Ġbetter": 829,
      "ft": 830,
      "Ġflow": 831,
      "Ġcall": 832,
      "Ġdon": 833,
      "Ġend": 834,
      "Ġad": 835,
      "Ġbest": 836,
      "vent": 837,
      "Yes": 838,
      "ars": 839,
      "urp": 840,
      "ady": 841,
      "em": 842,
      "ream": 843,
      "aut": 844,
      "urn": 845,
      "Ġcle": 846,
      "ves": 847,
      "Åĵ": 848,
      "arden": 849,
      "Ġgarden": 850,
      "Ġfast": 851,
      "Ġcu": 852,
      "Ġcareful": 853,
      "ber": 854,
      "lly": 855,
      "Ġbeaut": 856,
      "Ġeven": 857,
      "pt": 858,
      "Ġbra": 859,
      "ies": 860,
      "Ġthanked": 861,
      "Ġfi": 862,
      "Ġche": 863,
      "Ġlaughed": 864,
      "Ġsky": 865,
      "Ġby": 866,
      "Ġjump": 867,
      "Ġgl": 868,
      "ase": 869,
      "Ġte": 870,
      "Ġloud": 871,
      "self": 872,
      "Th": 873,
      "iny": 874,
      "Ġway": 875,
      "wn": 876,
      "Ġbeauti": 877,
      "Ġcome": 878,
      "lew": 879,
      "Ġlist": 880,
      "Ġwo": 881,
      "Ġbeautiful": 882,
      "Ġhard": 883,
      "Ġlots": 884,
      "Ġra": 885,
      "Ġstill": 886,
      "Ġfam": 887,
      "Ġanimals": 888,
      "Ġhurt": 889,
      "Ġunder": 890,
      "ĠP": 891,
      "ĠJoh": 892,
      "ect": 893,
      "Ġstay": 894,
      "ning": 895,
      "Ġlet": 896,
      "ct": 897,
      "Ġboth": 898,
      "sh": 899,
      "hes": 900,
      "be": 901,
      "Ġsafe": 902,
      "ool": 903,
      "ree": 904,
      "Ġcol": 905,
      "Ġtwo": 906,
      "Ġbad": 907,
      "It": 908,
      "Ġbook": 909,
      "Ġimp": 910,
      "ople": 911,
      "Ġrem": 912,
      "ane": 913,
      "ĠAs": 914,
      "Ġlived": 915,
      "kay": 916,
      "ock": 917,
      "ucy": 918,
      "Ġwalked": 919,
      "ast": 920,
      "Ġsu": 921,
      "urpr": 922,
      "ĠLucy": 923,
      "Ġbrave": 924,
      "Ġshould": 925,
      "Ġits": 926,
      "ob": 927,
      "ished": 928,
      "Ġangry": 929,
      "Ġsurpr": 930,
      "Ġfamily": 931,
      "ress": 932,
      "igh": 933,
      "Ġpeople": 934,
      "Ġflew": 935,
      "Ġcalled": 936,
      "No": 937,
      "Ġred": 938,
      "ĠAfter": 939,
      "Ġstor": 940,
      "ip": 941,
      "Ġsoon": 942,
      "Ġfin": 943,
      "Let": 944,
      "led": 945,
      "Ġkept": 946,
      "Ġfore": 947,
      "fore": 948,
      "Ġdan": 949,
      "Ġshare": 950,
      "Ġfly": 951,
      "xt": 952,
      "ĠJohn": 953,
      "ised": 954,
      "ĠMommy": 955,
      "dded": 956,
      "Ġpic": 957,
      "âĤ¬â": 958,
      "Ġdoor": 959,
      "Ġgoing": 960,
      "ĠG": 961,
      "Ġpretty": 962,
      "Ġkeep": 963,
      "ĠDad": 964,
      "Ġnow": 965,
      "Ġrock": 966,
      "Ġclean": 967,
      "Ġdra": 968,
      "ary": 969,
      "Ġadvent": 970,
      "ummy": 971,
      "Ġnoise": 972,
      "Ġopened": 973,
      "Ġshiny": 974,
      "age": 975,
      "Ġexplore": 976,
      "Ġwind": 977,
      "Ġdoll": 978,
      "Ġcry": 979,
      "Ġcon": 980,
      "Ġide": 981,
      "Ġbefore": 982,
      "ied": 983,
      "illy": 984,
      "Ġreal": 985,
      "Ġsto": 986,
      "so": 987,
      "What": 988,
      "Ġground": 989,
      "Ġalso": 990,
      "les": 991,
      "Ġturn": 992,
      "Ħ¢": 993,
      "âĤ¬âĦ¢": 994,
      "Ġey": 995,
      "Ġfar": 996,
      "Ġidea": 997,
      "Ġfr": 998,
      "ĠSp": 999,
      "Ġnodded": 1000,
      "Ġcolor": 1001,
      "Ġwar": 1002,
      "Ġfeeling": 1003,
      "Ġun": 1004,
      "Ġpicked": 1005,
      "imb": 1006,
      "oy": 1007,
      "th": 1008,
      "Ġnext": 1009,
      "Ġwalking": 1010,
      "thing": 1011,
      "ĠBob": 1012,
      "ture": 1013,
      "Ġclimb": 1014,
      "Ġhas": 1015,
      "Ġma": 1016,
      "Ġthr": 1017,
      "Ġwhile": 1018,
      "eet": 1019,
      "Ġbed": 1020,
      "Ġadventure": 1021,
      "Ġsmile": 1022,
      "kes": 1023,
      "That": 1024,
      "aybe": 1025,
      "iced": 1026,
      "ger": 1027,
      "Thank": 1028,
      "ious": 1029,
      "Ġbeing": 1030,
      "Ġdif": 1031,
      "Ġwr": 1032,
      "Ġclos": 1033,
      "Ġfood": 1034,
      "joy": 1035,
      "ted": 1036,
      "Ġgive": 1037,
      "Ġpicture": 1038,
      "ĠN": 1039,
      "Ġthink": 1040,
      "Ġlooking": 1041,
      "Ġdel": 1042,
      "ff": 1043,
      "ac": 1044,
      "Ġtruck": 1045,
      "Ġwait": 1046,
      "Ġeyes": 1047,
      "ught": 1048,
      "Ġtow": 1049,
      "ting": 1050,
      "Ġrepl": 1051,
      "Ġbro": 1052,
      "Ġstopped": 1053,
      "Ġlisten": 1054,
      "Ġafter": 1055,
      "ĠR": 1056,
      "Ġbre": 1057,
      "Ġown": 1058,
      "Ġvo": 1059,
      "Ġwalk": 1060,
      "ember": 1061,
      "Ġwonder": 1062,
      "Ġgreat": 1063,
      "ĠSpot": 1064,
      "Ġhands": 1065,
      "Ġshout": 1066,
      "Ġhead": 1067,
      "Ġenjoy": 1068,
      "Ġimport": 1069,
      "Ġflowers": 1070,
      "Ġever": 1071,
      "ĠSue": 1072,
      "Ġnoticed": 1073,
      "Ġblue": 1074,
      "Ġforest": 1075,
      "bbit": 1076,
      "ized": 1077,
      "Ġapp": 1078,
      "irst": 1079,
      "Ġnear": 1080,
      "Ġquick": 1081,
      "Ġdis": 1082,
      "Ġde": 1083,
      "able": 1084,
      "Ġimportant": 1085,
      "Ġremember": 1086,
      "Ġfish": 1087,
      "llow": 1088,
      "Ġsound": 1089,
      "oon": 1090,
      "Ġslide": 1091,
      "Ġus": 1092,
      "maz": 1093,
      "Ġreplied": 1094,
      "Ġamaz": 1095,
      "Ġac": 1096,
      "lease": 1097,
      "Ġwork": 1098,
      "Ġwatch": 1099,
      "Ġrain": 1100,
      "Ġshowed": 1101,
      "Ġrabbit": 1102,
      "Ġokay": 1103,
      "gan": 1104,
      "Ġtal": 1105,
      "bye": 1106,
      "fere": 1107,
      "bbed": 1108,
      "Ġask": 1109,
      "Ġru": 1110,
      "Ġdiffere": 1111,
      "Ġmean": 1112,
      "ĠSarah": 1113,
      "Ġright": 1114,
      "Ġtou": 1115,
      "Ġye": 1116,
      "day": 1117,
      "Ġwatched": 1118,
      "Ġbright": 1119,
      "Ġfollow": 1120,
      "Ġeveryone": 1121,
      "Ġstrong": 1122,
      "We": 1123,
      "Ġsqu": 1124,
      "Ġstick": 1125,
      "Ġuse": 1126,
      "Ġbeen": 1127,
      "Ġmor": 1128,
      "Ġvoice": 1129,
      "Ġtra": 1130,
      "ered": 1131,
      "Ġquickly": 1132,
      "ath": 1133,
      "Ġour": 1134,
      "Ġwhere": 1135,
      "Ġyell": 1136,
      "ĠJane": 1137,
      "Ġdifferent": 1138,
      "Ġchild": 1139,
      "Ġcuri": 1140,
      "Ġboat": 1141,
      "ng": 1142,
      "Ġsure": 1143,
      "Ġbecame": 1144,
      "Ġgoodbye": 1145,
      "Ġface": 1146,
      "Ġplace": 1147,
      "ange": 1148,
      "Ġhop": 1149,
      "ĠTh": 1150,
      "Ġhigh": 1151,
      "Ġam": 1152,
      "Look": 1153,
      "aught": 1154,
      "Ġcloser": 1155,
      "Ġstore": 1156,
      "Ġwarm": 1157,
      "Ġdoes": 1158,
      "Ġcr": 1159,
      "Ġdress": 1160,
      "unny": 1161,
      "Ġcurious": 1162,
      "Ġmag": 1163,
      "ila": 1164,
      "ĠJoe": 1165,
      "Ġcook": 1166,
      "Ġbel": 1167,
      "Ġforg": 1168,
      "Ġtell": 1169,
      "Ġfav": 1170,
      "ndma": 1171,
      "ass": 1172,
      "ount": 1173,
      "co": 1174,
      "Ġthree": 1175,
      "leep": 1176,
      "Ġnight": 1177,
      "Ġopen": 1178,
      "Ġcake": 1179,
      "more": 1180,
      "Ġhere": 1181,
      "Ġanymore": 1182,
      "Ġblock": 1183,
      "ĠLila": 1184,
      "Ġfirst": 1185,
      "itc": 1186,
      "ull": 1187,
      "Ġpull": 1188,
      "iss": 1189,
      "ached": 1190,
      "ired": 1191,
      "Ġbutter": 1192,
      "Ġz": 1193,
      "imes": 1194,
      "orn": 1195,
      "Ġsweet": 1196,
      "Ġpain": 1197,
      "Ġkid": 1198,
      "Ġgrabbed": 1199,
      "Can": 1200,
      "ĠIn": 1201,
      "isy": 1202,
      "Ġonly": 1203,
      "Ġmon": 1204,
      "Ġlea": 1205,
      "Ġfell": 1206,
      "Ġba": 1207,
      "Ġcont": 1208,
      "ĠEveryone": 1209,
      "Ġbirds": 1210,
      "Ġjumped": 1211,
      "Ġglad": 1212,
      "Ġbit": 1213,
      "Ġsand": 1214,
      "itchen": 1215,
      "Ġkitchen": 1216,
      "ĠThat": 1217,
      "Ġhelped": 1218,
      "Ġsees": 1219,
      "Ġfire": 1220,
      "Ġper": 1221,
      "Ġflo": 1222,
      "Ġstop": 1223,
      "Ġhappened": 1224,
      "Ġsing": 1225,
      "Ġgrass": 1226,
      "Ġbunny": 1227,
      "Ġshouted": 1228,
      "Ġstory": 1229,
      "ĠLet": 1230,
      "Ġtri": 1231,
      "nts": 1232,
      "Ġdr": 1233,
      "air": 1234,
      "ĠDo": 1235,
      "Ġreached": 1236,
      "ppy": 1237,
      "Ġbeh": 1238,
      "Ġrealized": 1239,
      "Ġyummy": 1240,
      "Ġbrother": 1241,
      "Mom": 1242,
      "Ġlady": 1243,
      "ĠTommy": 1244,
      "Ġmum": 1245,
      "ey": 1246,
      "Ġhaving": 1247,
      "Ġprin": 1248,
      "ins": 1249,
      "Ġfavor": 1250,
      "'re": 1251,
      "Ġmess": 1252,
      "Ġfavorite": 1253,
      "Ġdraw": 1254,
      "Ġcre": 1255,
      "Ġrest": 1256,
      "Ġthrough": 1257,
      "Ġgame": 1258,
      "Ġhat": 1259,
      "Ġate": 1260,
      "Ġless": 1261,
      "Ġunderst": 1262,
      "akes": 1263,
      "Ġsoft": 1264,
      "Ġpare": 1265,
      "zy": 1266,
      "Ġthing": 1267,
      "Ġreally": 1268,
      "ather": 1269,
      "Ġready": 1270,
      "Ġbegan": 1271,
      "where": 1272,
      "Ġpretend": 1273,
      "ĠCan": 1274,
      "Ġworld": 1275,
      "Ġlooks": 1276,
      "ken": 1277,
      "Ġhimself": 1278,
      "Ġmagic": 1279,
      "fully": 1280,
      "Ġpap": 1281,
      "Ġdone": 1282,
      "Ġbutterf": 1283,
      "Ġmaking": 1284,
      "Ġcut": 1285,
      "Ġcoming": 1286,
      "Ġduck": 1287,
      "ater": 1288,
      "Ġpond": 1289,
      "Ġkids": 1290,
      "Ġwaved": 1291,
      "Ġwhy": 1292,
      "Ġprom": 1293,
      "Ġtired": 1294,
      "Ġfro": 1295,
      "Ġfix": 1296,
      "ster": 1297,
      "Ġmouse": 1298,
      "Ġworry": 1299,
      "olly": 1300,
      "Ġpart": 1301,
      "Ġcars": 1302,
      "Ġste": 1303,
      "Ġdelic": 1304,
      "Ġname": 1305,
      "Ġflower": 1306,
      "ign": 1307,
      "ĠFin": 1308,
      "Ġfill": 1309,
      "Wow": 1310,
      "aisy": 1311,
      "Ġtouch": 1312,
      "eddy": 1313,
      "Ġfunny": 1314,
      "Ġcatch": 1315,
      "bo": 1316,
      "Ġused": 1317,
      "ĠSally": 1318,
      "Ġseen": 1319,
      "Ġhair": 1320,
      "Ġtast": 1321,
      "ient": 1322,
      "Ġtop": 1323,
      "Ġparents": 1324,
      "rel": 1325,
      "Ġanother": 1326,
      "Ġhold": 1327,
      "Ġhopped": 1328,
      "Ġcried": 1329,
      "iver": 1330,
      "oney": 1331,
      "mer": 1332,
      "Ġdoing": 1333,
      "Ġcool": 1334,
      "Ġblocks": 1335,
      "\".": 1336,
      "Ġsurprise": 1337,
      "Ġlight": 1338,
      "hy": 1339,
      "Ġgreen": 1340,
      "Ġthank": 1341,
      "Ġlesson": 1342,
      "ation": 1343,
      "Ġread": 1344,
      "Ġfloor": 1345,
      "Ġdin": 1346,
      "Ġgi": 1347,
      "Ġwood": 1348,
      "Ġdri": 1349,
      "Don": 1350,
      "ards": 1351,
      "Ġfull": 1352,
      "Ġtrees": 1353,
      "Ġrunning": 1354,
      "Ġwindow": 1355,
      "Ġworked": 1356,
      "Ġyears": 1357,
      "Ġcra": 1358,
      "Ġ-": 1359,
      "Ġdro": 1360,
      "Ġdark": 1361,
      "Ġbehind": 1362,
      "Ġlikes": 1363,
      "Ġsmell": 1364,
      "Ġspot": 1365,
      "Ġwished": 1366,
      "Ġpaper": 1367,
      "ued": 1368,
      "Ġyellow": 1369,
      "andy": 1370,
      "Ġbow": 1371,
      "ren": 1372,
      "Ġswim": 1373,
      "Ġhappily": 1374,
      "Ġbag": 1375,
      "Ġsat": 1376,
      "ul": 1377,
      "Ġsho": 1378,
      "Ġsleep": 1379,
      "aring": 1380,
      "ĠDaisy": 1381,
      "Ġsurprised": 1382,
      "ely": 1383,
      "us": 1384,
      "ĠEm": 1385,
      "Ġfrog": 1386,
      "Ġbutterfly": 1387,
      "ike": 1388,
      "Ġswing": 1389,
      "Ġset": 1390,
      "Ġcarefully": 1391,
      "Ġslow": 1392,
      "Ġremembered": 1393,
      "ĠJim": 1394,
      "Ġlost": 1395,
      "ĠBenny": 1396,
      "Ġcold": 1397,
      "Ġheld": 1398,
      "uff": 1399,
      "ello": 1400,
      "Hello": 1401,
      "Ġhole": 1402,
      "Ġice": 1403,
      "Ġlaugh": 1404,
      "rew": 1405,
      "ĠK": 1406,
      "ĠAt": 1407,
      "Ġneeded": 1408,
      "Ġbuy": 1409,
      "Ġperf": 1410,
      "Ġleft": 1411,
      "ons": 1412,
      "Ġmove": 1413,
      "reed": 1414,
      "cess": 1415,
      "Ġanything": 1416,
      "Ġdream": 1417,
      "Ġtall": 1418,
      "Ġenjoyed": 1419,
      "Ġwrong": 1420,
      "ĠBilly": 1421,
      "Ġarri": 1422,
      "Ġhear": 1423,
      "ĠNow": 1424,
      "Ġfair": 1425,
      "Ġair": 1426,
      "Ġfollowed": 1427,
      "ĠThere": 1428,
      "ĠFinally": 1429,
      "Ġbooks": 1430,
      "ross": 1431,
      "Ġel": 1432,
      "ĠTo": 1433,
      "Ġchildren": 1434,
      "Ġbus": 1435,
      "Ġhun": 1436,
      "Ġdelicious": 1437,
      "Ġtable": 1438,
      "ĠGra": 1439,
      "Ġfinished": 1440,
      "Ġcontin": 1441,
      "Ġfriendly": 1442,
      "Ġdir": 1443,
      "Ġhot": 1444,
      "Ġsnow": 1445,
      "ĠMolly": 1446,
      "Ġherself": 1447,
      "ds": 1448,
      "lf": 1449,
      "Ġhill": 1450,
      "ens": 1451,
      "Ġunderstand": 1452,
      "Ġplease": 1453,
      "Ġclose": 1454,
      "ined": 1455,
      "ĠAmy": 1456,
      "Ġhid": 1457,
      "sp": 1458,
      "Ġarrived": 1459,
      "Ġcast": 1460,
      "Ġelse": 1461,
      "Ġarm": 1462,
      "Ġbaby": 1463,
      "Ġwonderful": 1464,
      "Ġmight": 1465,
      "Ġgent": 1466,
      "Ġtight": 1467,
      "Ġforgot": 1468,
      "ield": 1469,
      "Ġbug": 1470,
      "Ġcolors": 1471,
      "Ġrel": 1472,
      "Ġbuild": 1473,
      "Ġbroken": 1474,
      "Ġable": 1475,
      "Ġgone": 1476,
      "av": 1477,
      "ner": 1478,
      "Ġyes": 1479,
      "ĠJen": 1480,
      "atter": 1481,
      "Ġsong": 1482,
      "ich": 1483,
      "Ġwall": 1484,
      "Ġsquir": 1485,
      "Ġfilled": 1486,
      "Ġagreed": 1487,
      "Ġsomeone": 1488,
      "Ġgu": 1489,
      "Ġcontinued": 1490,
      "room": 1491,
      "Ġcreat": 1492,
      "asure": 1493,
      "'ll": 1494,
      "Ġcount": 1495,
      "Ġwants": 1496,
      "Ġsquirrel": 1497,
      "Ġpink": 1498,
      "Ġleaves": 1499,
      "ask": 1500,
      "ĠThis": 1501,
      "Ġenough": 1502,
      "Ġlion": 1503,
      "ama": 1504,
      "ee": 1505,
      "Ġmorning": 1506,
      "Ġvis": 1507,
      "Ġmoment": 1508,
      "Ġfinally": 1509,
      "Ġgetting": 1510,
      "Ġstayed": 1511,
      "Ġcookies": 1512,
      "Ġbreak": 1513,
      "shed": 1514,
      "app": 1515,
      "Ġpoin": 1516,
      "ance": 1517,
      "Ġbeach": 1518,
      "ĠMaybe": 1519,
      "Ġfew": 1520,
      "Ġscary": 1521,
      "Ġfight": 1522,
      "Ġsometimes": 1523,
      "row": 1524,
      "ash": 1525,
      "ries": 1526,
      "ced": 1527,
      "red": 1528,
      "ĠWhat": 1529,
      "Ġturned": 1530,
      "Ġhungry": 1531,
      "Ġfall": 1532,
      "Ġdinner": 1533,
      "gon": 1534,
      "Ġmother": 1535,
      "Ġgrandma": 1536,
      "Ġju": 1537,
      "Ġwet": 1538,
      "Ġamazing": 1539,
      "apped": 1540,
      "Ġtrying": 1541,
      "Ġcream": 1542,
      "Ġdaddy": 1543,
      "Ġperfect": 1544,
      "Ġpi": 1545,
      "Ġmakes": 1546,
      "Ġcastle": 1547,
      "Ġothers": 1548,
      "Ġclimbed": 1549,
      "key": 1550,
      "oup": 1551,
      "Ġpictures": 1552,
      "icy": 1553,
      "Ġcomp": 1554,
      "amp": 1555,
      "Ġtalk": 1556,
      "Ġmet": 1557,
      "Ġmus": 1558,
      "ere": 1559,
      "Ġwhite": 1560,
      "oom": 1561,
      "Ġlistened": 1562,
      "Ġsmiles": 1563,
      "man": 1564,
      "Ġfur": 1565,
      "Ġballoon": 1566,
      "Ġclot": 1567,
      "oring": 1568,
      "Ġalone": 1569,
      "ĠJill": 1570,
      "Ġclothes": 1571,
      "Ġpol": 1572,
      "lc": 1573,
      "Ġtail": 1574,
      "Ġjoy": 1575,
      "ated": 1576,
      "rot": 1577,
      "Ġpuppy": 1578,
      "Ġspl": 1579,
      "ence": 1580,
      "Ġmar": 1581,
      "Ġwasn": 1582,
      "Ġbrought": 1583,
      "Ġdeep": 1584,
      "Ġeverything": 1585,
      "Ġpet": 1586,
      "Ġsear": 1587,
      "Oh": 1588,
      "Ġstrange": 1589,
      "ister": 1590,
      "ctor": 1591,
      "Ġspark": 1592,
      "der": 1593,
      "Ġsit": 1594,
      "Ġwoods": 1595,
      "Ġgrow": 1596,
      "Ġpulled": 1597,
      "ling": 1598,
      "Ġsail": 1599,
      "ott": 1600,
      "Ġwon": 1601,
      "Ġplan": 1602,
      "Ġride": 1603,
      "eter": 1604,
      "Ġasks": 1605,
      "Ġfox": 1606,
      "Ġpie": 1607,
      "Ġdanger": 1608,
      "Ġtreat": 1609,
      "uffy": 1610,
      "Ġroll": 1611,
      "Ġvisit": 1612,
      "Ġleave": 1613,
      "os": 1614,
      "med": 1615,
      "Ġpat": 1616,
      "ucky": 1617,
      "This": 1618,
      "Ġmusic": 1619,
      "Ġamazed": 1620,
      "Ġwaited": 1621,
      "ĠSoon": 1622,
      "Ġteddy": 1623,
      "Ġhide": 1624,
      "me": 1625,
      "But": 1626,
      "ang": 1627,
      "ever": 1628,
      "Ġtowards": 1629,
      "ower": 1630,
      "Ġfield": 1631,
      "Ġland": 1632,
      "Ġpre": 1633,
      "Ġflying": 1634,
      "zz": 1635,
      "ĠAll": 1636,
      "Ġpen": 1637,
      "Ġsilly": 1638,
      "Ġshared": 1639,
      "Ġruns": 1640,
      "ained": 1641,
      "Ġowner": 1642,
      "Ġcloud": 1643,
      "ape": 1644,
      "Ġliving": 1645,
      "ugg": 1646,
      "ĠDaddy": 1647,
      "Ġqui": 1648,
      "ames": 1649,
      "Ġjob": 1650,
      "Ġpromised": 1651,
      "Ġbelie": 1652,
      "igg": 1653,
      "Ġmoral": 1654,
      "Ġside": 1655,
      "gs": 1656,
      "orm": 1657,
      "ol": 1658,
      "Ġlake": 1659,
      "Ġthinks": 1660,
      "ĠMama": 1661,
      "cket": 1662,
      "Maybe": 1663,
      "ope": 1664,
      "Ġpaint": 1665,
      "Ġsec": 1666,
      "thy": 1667,
      "Ġsister": 1668,
      "ĠMary": 1669,
      "ually": 1670,
      "Ġparty": 1671,
      "Ġquiet": 1672,
      "ises": 1673,
      "Okay": 1674,
      "Ġmust": 1675,
      "cle": 1676,
      "Ġrace": 1677,
      "avy": 1678,
      "Ġmoney": 1679,
      "Ġwear": 1680,
      "sw": 1681,
      "Ġworried": 1682,
      "ased": 1683,
      "Ġansw": 1684,
      "unch": 1685,
      "Ġslowly": 1686,
      "Ġpot": 1687,
      "eces": 1688,
      "Ġcolorful": 1689,
      "Ġfaster": 1690,
      "Ġgrate": 1691,
      "Ġow": 1692,
      "Ġdance": 1693,
      "Ġpieces": 1694,
      "Ġbran": 1695,
      "Ġbott": 1696,
      "Ġwelc": 1697,
      "Ġbroke": 1698,
      "Ġcup": 1699,
      "ix": 1700,
      "Ġgrateful": 1701,
      "Ġgif": 1702,
      "Ġsuch": 1703,
      "Ġbigger": 1704,
      "ze": 1705,
      "Ġtrain": 1706,
      "ph": 1707,
      "fort": 1708,
      "Ġsnack": 1709,
      "Ġcho": 1710,
      "ĠFl": 1711,
      "Ġreach": 1712,
      "ĠMr": 1713,
      "Ġblank": 1714,
      "Ġmonster": 1715,
      "Ġpro": 1716,
      "Ġplant": 1717,
      "Ġjoin": 1718,
      "Ġriver": 1719,
      "Ġblack": 1720,
      "less": 1721,
      "Ġwin": 1722,
      "Ġcandy": 1723,
      "ire": 1724,
      "Ġblanket": 1725,
      "Ġscream": 1726,
      "uit": 1727,
      "Ġtreasure": 1728,
      "ear": 1729,
      "Ġmagical": 1730,
      "Ġve": 1731,
      "Ġprincess": 1732,
      "Ġele": 1733,
      "Ġsmart": 1734,
      "Ġstu": 1735,
      "Ġbike": 1736,
      "Ġdangerous": 1737,
      "ĠJust": 1738,
      "Ġsign": 1739,
      "Ġdragon": 1740,
      "OK": 1741,
      "Ġacross": 1742,
      "Ġmonkey": 1743,
      "Ġbar": 1744,
      "Ġeverywhere": 1745,
      "Ġmost": 1746,
      "Ġhelping": 1747,
      "Ġnap": 1748,
      "Ġfarmer": 1749,
      "outh": 1750,
      "Ġem": 1751,
      "Ġmouth": 1752,
      "Why": 1753,
      "set": 1754,
      "Ġdisapp": 1755,
      "ĠJimmy": 1756,
      "Ġpa": 1757,
      "Ġwords": 1758,
      "Ġje": 1759,
      "ipped": 1760,
      "Sure": 1761,
      "Ġstre": 1762,
      "ored": 1763,
      "Ġtower": 1764,
      "ming": 1765,
      "eared": 1766,
      "Ġthrew": 1767,
      "Hi": 1768,
      "Ġstepped": 1769,
      "Ġheavy": 1770,
      "Ġdolls": 1771,
      "Ġpass": 1772,
      "Ġbite": 1773,
      "de": 1774,
      "Ġbowl": 1775,
      "Ġdirty": 1776,
      "Ġtwins": 1777,
      "Ġsame": 1778,
      "Ġcrying": 1779,
      "Ġbee": 1780,
      "Ġspr": 1781,
      "Ġdoctor": 1782,
      "ident": 1783,
      "ĠGrandma": 1784,
      "Ġacc": 1785,
      "Ġbelieve": 1786,
      "Ġwouldn": 1787,
      "Ġbath": 1788,
      "Ġheal": 1789,
      "Mommy": 1790,
      "chool": 1791,
      "Ġhig": 1792,
      "bble": 1793,
      "Ġclosed": 1794,
      "Ġcarrot": 1795,
      "ĠMum": 1796,
      "Ġheart": 1797,
      "Ġstuck": 1798,
      "cked": 1799,
      "The": 1800,
      "Ġcour": 1801,
      "Ġfruit": 1802,
      "Ġbuck": 1803,
      "Ġmin": 1804,
      "Ġatt": 1805,
      "Ġteac": 1806,
      "Ġschool": 1807,
      "Ġbrown": 1808,
      "Ġhoped": 1809,
      "asket": 1810,
      "iting": 1811,
      "Ġsuddenly": 1812,
      "Ġbasket": 1813,
      "Ġfeels": 1814,
      "Ġmix": 1815,
      "ĠEmma": 1816,
      "Ġchair": 1817,
      "Ġeating": 1818,
      "Ġtown": 1819,
      "Ġcourse": 1820,
      "Ġcray": 1821,
      "Ġclapped": 1822,
      "Ġcoll": 1823,
      "Ġgentle": 1824,
      "Ġfairy": 1825,
      "pping": 1826,
      "Ġbutt": 1827,
      "Ġpack": 1828,
      "ventually": 1829,
      "Ġstand": 1830,
      "ier": 1831,
      "Ġdrove": 1832,
      "ors": 1833,
      "Ġpushed": 1834,
      "br": 1835,
      "issed": 1836,
      "Ġwelcome": 1837,
      "ts": 1838,
      "Ġswings": 1839,
      "Ġwithout": 1840,
      "ĠInside": 1841,
      "Ġhigher": 1842,
      "Ġtoday": 1843,
      "Ġneigh": 1844,
      "Ġpocket": 1845,
      "orrow": 1846,
      "Ġhit": 1847,
      "Ġteacher": 1848,
      "Ġneighb": 1849,
      "Ġpers": 1850,
      "ord": 1851,
      "Ġsmo": 1852,
      "Ġgames": 1853,
      "ourn": 1854,
      "Ġpiece": 1855,
      "ract": 1856,
      "Ġcheered": 1857,
      "Ġwings": 1858,
      "Ġforget": 1859,
      "Ġben": 1860,
      "Ġexplained": 1861,
      "Ġjourn": 1862,
      "Ġyard": 1863,
      "Ġlonger": 1864,
      "Ġfree": 1865,
      "ible": 1866,
      "Ġcorn": 1867,
      "Ġaccident": 1868,
      "ead": 1869,
      "ho": 1870,
      "Ġdry": 1871,
      "Ġalong": 1872,
      "umb": 1873,
      "ment": 1874,
      "ĠTheir": 1875,
      "cy": 1876,
      "Ġnoises": 1877,
      "itting": 1878,
      "Ġneck": 1879,
      "Ġsang": 1880,
      "Ġinst": 1881,
      "Ġlate": 1882,
      "Ġhappen": 1883,
      "Ġthrow": 1884,
      "Ġhugs": 1885,
      "Ġyoung": 1886,
      "Ġturns": 1887,
      "Ġstories": 1888,
      "vel": 1889,
      "Ġshoes": 1890,
      "phant": 1891,
      "Ġlon": 1892,
      "Ġmiss": 1893,
      "Ġadventures": 1894,
      "Ġsinging": 1895,
      "Ġtrou": 1896,
      "Ġwell": 1897,
      "Ġsea": 1898,
      "Ġlunch": 1899,
      "Ġapple": 1900,
      "Ġupset": 1901,
      "Ġlonely": 1902,
      "Ġkey": 1903,
      "ches": 1904,
      "Ġbelong": 1905,
      "bby": 1906,
      "oun": 1907,
      "Ġdist": 1908,
      "Ġsecret": 1909,
      "Ġstreet": 1910,
      "Ġplac": 1911,
      "Ġelephant": 1912,
      "Ġtom": 1913,
      "Ġwish": 1914,
      "Ġfence": 1915,
      "Ġmine": 1916,
      "ountain": 1917,
      "Ġmat": 1918,
      "ek": 1919,
      "Ġshap": 1920,
      "Ġshook": 1921,
      "Ġexploring": 1922,
      "Ġmoved": 1923,
      "Ġpurp": 1924,
      "Ġyear": 1925,
      "aughty": 1926,
      "Ġnearby": 1927,
      "Ġnaughty": 1928,
      "Ġstar": 1929,
      "Ġsoup": 1930,
      "Ġshop": 1931,
      "Ġwise": 1932,
      "ĠSammy": 1933,
      "Ġstars": 1934,
      "Ġowl": 1935,
      "Ġbring": 1936,
      "fused": 1937,
      "Ġjar": 1938,
      "bow": 1939,
      "ocked": 1940,
      "ĠFluffy": 1941,
      "Ġinv": 1942,
      "Ġexp": 1943,
      "ĠTw": 1944,
      "Ġwhe": 1945,
      "yard": 1946,
      "Ġcaught": 1947,
      "ward": 1948,
      "Do": 1949,
      "Ġbackyard": 1950,
      "Ġseemed": 1951,
      "ail": 1952,
      "Ġes": 1953,
      "Ġrelie": 1954,
      "Ġdropped": 1955,
      "Ġph": 1956,
      "Ġrocks": 1957,
      "aughter": 1958,
      "llo": 1959,
      "Ġ3": 1960,
      "Ġdrink": 1961,
      "Ġbucket": 1962,
      "Ġdes": 1963,
      "adow": 1964,
      "ces": 1965,
      "Ġpurple": 1966,
      "Ġswam": 1967,
      "Ġfarm": 1968,
      "Ġresp": 1969,
      "ĠThank": 1970,
      "Ġtaking": 1971,
      "Ġmail": 1972,
      "Ġorange": 1973,
      "Ġthough": 1974,
      "ions": 1975,
      "sy": 1976,
      "Ġshapes": 1977,
      "Ġpast": 1978,
      "col": 1979,
      "Ġcow": 1980,
      "Ġwoke": 1981,
      "Ġbench": 1982,
      "Ġsounds": 1983,
      "Ġaf": 1984,
      "ung": 1985,
      "ity": 1986,
      "Ġwondered": 1987,
      "Ġbusy": 1988,
      "Ġfit": 1989,
      "Ġtiny": 1990,
      "Ġob": 1991,
      "ĠLater": 1992,
      "Ġnose": 1993,
      "Ġsitting": 1994,
      "Ġnest": 1995,
      "Ġrainbow": 1996,
      "ese": 1997,
      "Ġdaughter": 1998,
      "Ġtakes": 1999,
      "Ġmark": 2000,
      "Ġmad": 2001,
      "fish": 2002,
      "Ġcou": 2003,
      "Ġkite": 2004,
      "to": 2005,
      "read": 2006,
      "Ġholding": 2007,
      "Ġnothing": 2008,
      "Lily": 2009,
      "Ġcomes": 2010,
      "Ġjuice": 2011,
      "Ġarms": 2012,
      "thday": 2013,
      "Ġpig": 2014,
      "og": 2015,
      "Ġcoat": 2016,
      "ining": 2017,
      "Ġcir": 2018,
      "ĠWith": 2019,
      "Ġbranch": 2020,
      "raid": 2021,
      "Ġrelieved": 2022,
      "pper": 2023,
      "Ġafraid": 2024,
      "ĠEll": 2025,
      "cing": 2026,
      "ose": 2027,
      "idge": 2028,
      "Ġdriver": 2029,
      "Ġmil": 2030,
      "Ġforever": 2031,
      "ĠAl": 2032,
      "vered": 2033,
      "Ġspoon": 2034,
      "Ġcute": 2035,
      "Ġcarry": 2036,
      "Ġgift": 2037,
      "Ġsick": 2038,
      "Ġboun": 2039,
      "ale": 2040,
      "Ġlift": 2041,
      "sting": 2042,
      "Ġpeace": 2043,
      "Ġpromise": 2044,
      "Of": 2045,
      "ours": 2046,
      "Ġhuge": 2047,
      "Ġact": 2048,
      "Ġtouched": 2049,
      "ĠJenny": 2050,
      "Ġpatient": 2051,
      "unt": 2052,
      "Ġking": 2053,
      "Ġround": 2054,
      "cer": 2055,
      "sc": 2056,
      "Ġhello": 2057,
      "ĠCome": 2058,
      "Ġbirthday": 2059,
      "Ġfing": 2060,
      "Ġletter": 2061,
      "Ġgrab": 2062,
      "Ġintere": 2063,
      "Ġexciting": 2064,
      "let": 2065,
      "Ġsunny": 2066,
      "Ġcheese": 2067,
      "ĠTweet": 2068,
      "eth": 2069,
      "Ġonto": 2070,
      "Ġbush": 2071,
      "Ġlaughing": 2072,
      "Ġdays": 2073,
      "board": 2074,
      "Ġjourney": 2075,
      "Ġgigg": 2076,
      "Ġband": 2077,
      "Ġcreature": 2078,
      "Ġdisco": 2079,
      "ĠWh": 2080,
      "ittens": 2081,
      "Ġbread": 2082,
      "Hey": 2083,
      "arp": 2084,
      "Ġret": 2085,
      "ped": 2086,
      "Ġimag": 2087,
      "shine": 2088,
      "Ġlife": 2089,
      "Ġkick": 2090,
      "gged": 2091,
      "Ġhope": 2092,
      "Ġpower": 2093,
      "Ġcraw": 2094,
      "Ġshell": 2095,
      "Ġcozy": 2096,
      "Ġswimming": 2097,
      "Ġinc": 2098,
      "Ġbottle": 2099,
      "Ġmist": 2100,
      "Ġsharp": 2101,
      "ĠEmily": 2102,
      "Ġwra": 2103,
      "Ġsuc": 2104,
      "Ġcomfort": 2105,
      "gg": 2106,
      "ness": 2107,
      "Ġinstead": 2108,
      "Ġwhist": 2109,
      "Ġmilk": 2110,
      "Ġwatching": 2111,
      "Ġreturn": 2112,
      "Ġear": 2113,
      "Ġspin": 2114,
      "alm": 2115,
      "Ġaccidentally": 2116,
      "Ġeas": 2117,
      "Ġsunshine": 2118,
      "ten": 2119,
      "Ġcave": 2120,
      "pa": 2121,
      "ĠCh": 2122,
      "Ġspo": 2123,
      "Ġputs": 2124,
      "Ġlucky": 2125,
      "Ġtalked": 2126,
      "Ġhoney": 2127,
      "Ġpudd": 2128,
      "Ġpointed": 2129,
      "Ġgives": 2130,
      "Ġcollect": 2131,
      "Ġgather": 2132,
      "itch": 2133,
      "Ġroad": 2134,
      "Ġent": 2135,
      "Ġsmiling": 2136,
      "Ġbought": 2137,
      "Ġanyone": 2138,
      "Ġhor": 2139,
      "Ġsearched": 2140,
      "Ġlater": 2141,
      "Ġce": 2142,
      "Ġfan": 2143,
      "Ġsandw": 2144,
      "ball": 2145,
      "round": 2146,
      "itten": 2147,
      "Ġapples": 2148,
      "els": 2149,
      "blem": 2150,
      "irt": 2151,
      "Ġproblem": 2152,
      "Ġmeet": 2153,
      "ize": 2154,
      "Ġmach": 2155,
      "Ġwom": 2156,
      "Ġloves": 2157,
      "Ġinteresting": 2158,
      "ÅĵI": 2159,
      "Good": 2160,
      "Ġwoman": 2161,
      "Ġplane": 2162,
      "Ġkiss": 2163,
      "Ġpres": 2164,
      "Ġhealthy": 2165,
      "eb": 2166,
      "Ġpile": 2167,
      "Ġtasty": 2168,
      "Ġducks": 2169,
      "Ġvill": 2170,
      "Ġwide": 2171,
      "ove": 2172,
      "ont": 2173,
      "amed": 2174,
      "ub": 2175,
      "aur": 2176,
      "Ġadm": 2177,
      "Ġeag": 2178,
      "Ġspid": 2179,
      "Ġclever": 2180,
      "Ġcrayons": 2181,
      "Ġprot": 2182,
      "Ġmatter": 2183,
      "Ġtrouble": 2184,
      "erly": 2185,
      "ndpa": 2186,
      "Ġzoom": 2187,
      "Ġclouds": 2188,
      "owed": 2189,
      "Ġstorm": 2190,
      "Ġperson": 2191,
      "Ġpath": 2192,
      "cks": 2193,
      "Ġpill": 2194,
      "Ġfeather": 2195,
      "Ġrope": 2196,
      "Ġpop": 2197,
      "Ġshining": 2198,
      "Ġprotect": 2199,
      "Ġsmelled": 2200,
      "Ġfront": 2201,
      "Ġhon": 2202,
      "Ġbutton": 2203,
      "ĠHow": 2204,
      "Ġpract": 2205,
      "Ġspotted": 2206,
      "Ġscreamed": 2207,
      "Ġzoo": 2208,
      "Ġminut": 2209,
      "Ġpresent": 2210,
      "ĠJake": 2211,
      "Come": 2212,
      "Ġap": 2213,
      "Ġmud": 2214,
      "Ġval": 2215,
      "Ġrespect": 2216,
      "ĠSomet": 2217,
      "Ġsaf": 2218,
      "Ġdanced": 2219,
      "Ġcheer": 2220,
      "Ġorgan": 2221,
      "Ġpar": 2222,
      "Ġquest": 2223,
      "ond": 2224,
      "Ġappeared": 2225,
      "Ġwhich": 2226,
      "Ġpuzz": 2227,
      "Ġseat": 2228,
      "Ġteach": 2229,
      "Ġmyster": 2230,
      "Ġsnowman": 2231,
      "isa": 2232,
      "Ġsnake": 2233,
      "Ġthin": 2234,
      "ĠSt": 2235,
      "ert": 2236,
      "Ġwild": 2237,
      "Ġasleep": 2238,
      "Ġlovely": 2239,
      "Ġsur": 2240,
      "Ġanswer": 2241,
      "epend": 2242,
      "ĠTogether": 2243,
      "Ġwearing": 2244,
      "ĠMittens": 2245,
      "Ġgently": 2246,
      "Ġneighbor": 2247,
      "oose": 2248,
      "Ġbark": 2249,
      "Ġhorse": 2250,
      "Ġgiant": 2251,
      "Ġplaces": 2252,
      "Ġgoes": 2253,
      "ĠRe": 2254,
      "Ġwhole": 2255,
      "Ġsearch": 2256,
      "Ġsplas": 2257,
      "up": 2258,
      "Ġcorner": 2259,
      "Ġimpress": 2260,
      "ular": 2261,
      "Ġdirt": 2262,
      "Ġmed": 2263,
      "Ġshr": 2264,
      "een": 2265,
      "Ġtries": 2266,
      "ĠLisa": 2267,
      "Ġtrip": 2268,
      "Ġconfused": 2269,
      "Ġlive": 2270,
      "Ġmind": 2271,
      "Ġdi": 2272,
      "ato": 2273,
      "Ġrolled": 2274,
      "Ġcard": 2275,
      "Ġslid": 2276,
      "Ġtasted": 2277,
      "nic": 2278,
      "cean": 2279,
      "ĠLe": 2280,
      "Ġash": 2281,
      "Ġocean": 2282,
      "Ġsupp": 2283,
      "Ġforgive": 2284,
      "Ġpicnic": 2285,
      "ĠGo": 2286,
      "Ġca": 2287,
      "Ġrude": 2288,
      "Ġmachine": 2289,
      "Ġspent": 2290,
      "Ġdrive": 2291,
      "Ġteeth": 2292,
      "Ġser": 2293,
      "ssed": 2294,
      "itty": 2295,
      "Ġphone": 2296,
      "Ġoven": 2297,
      "Ġpan": 2298,
      "Ġpour": 2299,
      "Ġlast": 2300,
      "la": 2301,
      "Ġcalm": 2302,
      "Ġpretended": 2303,
      "Ġdelight": 2304,
      "Ġcookie": 2305,
      "Ġfurry": 2306,
      "Ġspider": 2307,
      "izz": 2308,
      "Ġfeet": 2309,
      "Ġfaces": 2310,
      "unk": 2311,
      "Ġlay": 2312,
      "Ġworm": 2313,
      "Ġring": 2314,
      "Ġrec": 2315,
      "umber": 2316,
      "ĠBe": 2317,
      "Ġhelpful": 2318,
      "Ġlad": 2319,
      "ĠPeter": 2320,
      "Ġeventually": 2321,
      "Ġwip": 2322,
      "Ġchick": 2323,
      "Ġwave": 2324,
      "Ġmountain": 2325,
      "Ġsal": 2326,
      "Ġban": 2327,
      "Ġemb": 2328,
      "Ġtalking": 2329,
      "ones": 2330,
      "Ġrob": 2331,
      "Tom": 2332,
      "Ġfold": 2333,
      "Ġshy": 2334,
      "Ġcart": 2335,
      "Ġtomorrow": 2336,
      "Ġsel": 2337,
      "Ġchocol": 2338,
      "Ġtid": 2339,
      "Ġspread": 2340,
      "Ġvillage": 2341,
      "arge": 2342,
      "ife": 2343,
      "Ġremind": 2344,
      "Ġign": 2345,
      "Ġbubble": 2346,
      "Ġtun": 2347,
      "Ġcoin": 2348,
      "Ġfoot": 2349,
      "Ġcouch": 2350,
      "Ġwrite": 2351,
      "Ġpush": 2352,
      "Ġladder": 2353,
      "Ġbuilding": 2354,
      "Ġfighting": 2355,
      "Ġsmooth": 2356,
      "ĠSometimes": 2357,
      "ĠLittle": 2358,
      "Ġtreats": 2359,
      "Ġwore": 2360,
      "Ġchased": 2361,
      "Ġtool": 2362,
      "ighed": 2363,
      "Ġblew": 2364,
      "Ġstret": 2365,
      "lex": 2366,
      "arra": 2367,
      "Ġbugs": 2368,
      "per": 2369,
      "Ġembarra": 2370,
      "Ġhiding": 2371,
      "Ġpool": 2372,
      "Ġ'": 2373,
      "Ġcross": 2374,
      "My": 2375,
      "Ġwaiting": 2376,
      "oph": 2377,
      "Ġknee": 2378,
      "Ġrobot": 2379,
      "Ġneckl": 2380,
      "Ġstep": 2381,
      "ĠTeddy": 2382,
      "Ġpuddle": 2383,
      "mo": 2384,
      "Ġfinish": 2385,
      "Ġshelf": 2386,
      "Ġbell": 2387,
      "Ġcoo": 2388,
      "not": 2389,
      "als": 2390,
      "Ġsongs": 2391,
      "Ġstir": 2392,
      "ator": 2393,
      "Ġwhenever": 2394,
      "Ġselfish": 2395,
      "Ġant": 2396,
      "Ġmaybe": 2397,
      "ĠMummy": 2398,
      "Ġcannot": 2399,
      "Ġstring": 2400,
      "Ġstra": 2401,
      "ĠSus": 2402,
      "Ġchocolate": 2403,
      "ĠEverywhere": 2404,
      "ult": 2405,
      "Ġsol": 2406,
      "Ġtaste": 2407,
      "Ġspe": 2408,
      "Ġrep": 2409,
      "Ġhum": 2410,
      "Ġple": 2411,
      "Ġlarge": 2412,
      "Ġpaw": 2413,
      "Ġnet": 2414,
      "box": 2415,
      "Ġsack": 2416,
      "Ġleaf": 2417,
      "Ġscar": 2418,
      "Ġfixed": 2419,
      "lebr": 2420,
      "Ġbarked": 2421,
      "Ġtidy": 2422,
      "umpy": 2423,
      "Ġbanan": 2424,
      "Ġwash": 2425,
      "Ġspray": 2426,
      "Ġstone": 2427,
      "ĠBu": 2428,
      "Ġcelebr": 2429,
      "old": 2430,
      "Ġgen": 2431,
      "Ġcloth": 2432,
      "Please": 2433,
      "Ġcrab": 2434,
      "Ġpeaceful": 2435,
      "Ġcolour": 2436,
      "ĠJohnn": 2437,
      "ungle": 2438,
      "ĠPlease": 2439,
      "oin": 2440,
      "Ġhel": 2441,
      "ush": 2442,
      "ird": 2443,
      "Ġmissed": 2444,
      "Ġdeter": 2445,
      "Ġjungle": 2446,
      "iger": 2447,
      "arm": 2448,
      "St": 2449,
      "Ġlanded": 2450,
      "Ġdeterm": 2451,
      "Ġforward": 2452,
      "ĠJohnny": 2453,
      "Ġembarrassed": 2454,
      "ĠSome": 2455,
      "Ġnecklace": 2456,
      "Ġhonest": 2457,
      "Ġjumping": 2458,
      "airs": 2459,
      "elly": 2460,
      "Ġbat": 2461,
      "Ġdecor": 2462,
      "ĠAlice": 2463,
      "dge": 2464,
      "Ġtrust": 2465,
      "Ġhears": 2466,
      "Ġmoon": 2467,
      "orry": 2468,
      "Ġsticks": 2469,
      "ĠTV": 2470,
      "Ġshirt": 2471,
      "Ġcreative": 2472,
      "Ġsharing": 2473,
      "aking": 2474,
      "Ġtea": 2475,
      "most": 2476,
      "Ġknocked": 2477,
      "Ġcarrots": 2478,
      "Ġdisappoin": 2479,
      "Ġsuccess": 2480,
      "ĠDon": 2481,
      "Ġmeadow": 2482,
      "ying": 2483,
      "ĠEven": 2484,
      "getable": 2485,
      "Ġwhis": 2486,
      "Ġstood": 2487,
      "Ġgener": 2488,
      "Ġvegetable": 2489,
      "ĠWhile": 2490,
      "Ġbal": 2491,
      "Ġmeant": 2492,
      "Ġlegs": 2493,
      "Ġtightly": 2494,
      "Ġbreath": 2495,
      "Ġplate": 2496,
      "Ġalmost": 2497,
      "Ġashamed": 2498,
      "ned": 2499,
      "ĠZ": 2500,
      "Ġemp": 2501,
      "Ġsour": 2502,
      "Ġgray": 2503,
      "dle": 2504,
      "Ġgrew": 2505,
      "Ġtells": 2506,
      "Ġempty": 2507,
      "Ġpillow": 2508,
      "ground": 2509,
      "ĠBo": 2510,
      "ony": 2511,
      "Ġgas": 2512,
      "Ġsplash": 2513,
      "Ġwhistle": 2514,
      "ian": 2515,
      "Ġunderstood": 2516,
      "Ġsheep": 2517,
      "Ġber": 2518,
      "Ġcarried": 2519,
      "den": 2520,
      "Ġyelled": 2521,
      "ĠWhy": 2522,
      "Ġlem": 2523,
      "ustr": 2524,
      "arl": 2525,
      "Ġnods": 2526,
      "vous": 2527,
      "Ġsave": 2528,
      "Ġpolice": 2529,
      "Ġdisappointed": 2530,
      "Ġsnacks": 2531,
      "Ġhours": 2532,
      "Ġnut": 2533,
      "ital": 2534,
      "Ġjew": 2535,
      "Ġthese": 2536,
      "hin": 2537,
      "ork": 2538,
      "Ġhosp": 2539,
      "ets": 2540,
      "Ġsparkly": 2541,
      "Ġgold": 2542,
      "Where": 2543,
      "erp": 2544,
      "Ġhospital": 2545,
      "Ġkitten": 2546,
      "Ġship": 2547,
      "Ġpay": 2548,
      "ina": 2549,
      "Ġbored": 2550,
      "urse": 2551,
      "Ġline": 2552,
      "Ġgenerous": 2553,
      "Ġfrustr": 2554,
      "Ġtest": 2555,
      "Ġhidden": 2556,
      "ĠLeo": 2557,
      "Ġtaught": 2558,
      "Ġstanding": 2559,
      "Ġrad": 2560,
      "Ġscarf": 2561,
      "iff": 2562,
      "Ġchew": 2563,
      "Ġreturned": 2564,
      "Ġminutes": 2565,
      "Ġpizz": 2566,
      "Ġknowing": 2567,
      "Ġgroup": 2568,
      "Ġhur": 2569,
      "Ġplants": 2570,
      "Ġeasy": 2571,
      "Ġblow": 2572,
      "Ġbedroom": 2573,
      "Ġpolite": 2574,
      "ĠRex": 2575,
      "Ġmysterious": 2576,
      "Ġwaves": 2577,
      "Ġglass": 2578,
      "Ġsighed": 2579,
      "Ġshore": 2580,
      "Ġpri": 2581,
      "Ġseed": 2582,
      "Ġwolf": 2583,
      "ĠMark": 2584,
      "Ġseek": 2585,
      "Ġdetermined": 2586,
      "kin": 2587,
      "Stop": 2588,
      "Ġpuzzle": 2589,
      "Ġpowerful": 2590,
      "Ġthankful": 2591,
      "fl": 2592,
      "Ġclass": 2593,
      "ĠBr": 2594,
      "Ġner": 2595,
      "Ġpir": 2596,
      "Ġsandwich": 2597,
      "Ġfig": 2598,
      "Ġsleepy": 2599,
      "Ġprince": 2600,
      "Ġpassed": 2601,
      "Ġdrew": 2602,
      "ĠBl": 2603,
      "ĠSusie": 2604,
      "'d": 2605,
      "Ġfinger": 2606,
      "Ġjelly": 2607,
      "Ġpizza": 2608,
      "Ġnervous": 2609,
      "Ġfrustrated": 2610,
      "Ġspicy": 2611,
      "Ġgun": 2612,
      "Ġspoil": 2613,
      "Ġmatch": 2614,
      "Ġfancy": 2615,
      "Ġmessy": 2616,
      "osaur": 2617,
      "work": 2618,
      "Ġgate": 2619,
      "Ġbridge": 2620,
      "Ġlock": 2621,
      "Ġkissed": 2622,
      "Ġtick": 2623,
      "aul": 2624,
      "Ġcloset": 2625,
      "Ġfear": 2626,
      "Ġreg": 2627,
      "af": 2628,
      "Ġfeed": 2629,
      "Ġmot": 2630,
      "Ġsold": 2631,
      "Ġwis": 2632,
      "Ġgathered": 2633,
      "Ġav": 2634,
      "Ġexcite": 2635,
      "Ġpoor": 2636,
      "Ġcirc": 2637,
      "ote": 2638,
      "Ġhang": 2639,
      "Ġcaterp": 2640,
      "Ġcaterpill": 2641,
      "Ġesc": 2642,
      "Ġflag": 2643,
      "oop": 2644,
      "Ġpin": 2645,
      "Ġgrumpy": 2646,
      "Ġvan": 2647,
      "iddle": 2648,
      "ella": 2649,
      "Ġdinosaur": 2650,
      "Ġyourself": 2651,
      "ano": 2652,
      "issors": 2653,
      "uce": 2654,
      "Ġanswered": 2655,
      "Ġcries": 2656,
      "Are": 2657,
      "Ġoften": 2658,
      "itter": 2659,
      "Ġtwirl": 2660,
      "selves": 2661,
      "Ġchest": 2662,
      "sist": 2663,
      "Ġscissors": 2664,
      "Ġhopping": 2665,
      "Ġtears": 2666,
      "pack": 2667,
      "gly": 2668,
      "Sorry": 2669,
      "mb": 2670,
      "Ġmummy": 2671,
      "Ben": 2672,
      "ĠDan": 2673,
      "ĠToday": 2674,
      "Ġugly": 2675,
      "Ġburn": 2676,
      "Ġcand": 2677,
      "ensive": 2678,
      "Ġdeer": 2679,
      "Ġdrop": 2680,
      "illed": 2681,
      "Ġfil": 2682,
      "Ġexcitement": 2683,
      "era": 2684,
      "izzy": 2685,
      "Ġcaterpillar": 2686,
      "Ġlit": 2687,
      "Ġworking": 2688,
      "Ġmiddle": 2689,
      "Ġexpensive": 2690,
      "Ġscr": 2691,
      "Ġsaved": 2692,
      "Ġtaken": 2693,
      "Ġok": 2694,
      "Ġtrue": 2695,
      "Ġwagged": 2696,
      "Ġones": 2697,
      "Ġpleased": 2698,
      "Ġcrown": 2699,
      "Ġspend": 2700,
      "Ġboring": 2701,
      "Ġpicks": 2702,
      "Ġleg": 2703,
      "que": 2704,
      "oof": 2705,
      "ugar": 2706,
      "Ġvase": 2707,
      "Ġtent": 2708,
      "Ġasking": 2709,
      "body": 2710,
      "ual": 2711,
      "Ġbrush": 2712,
      "Ġtie": 2713,
      "ĠBobby": 2714,
      "ates": 2715,
      "Ġvegetables": 2716,
      "ecially": 2717,
      "Ġgiggled": 2718,
      "Ġboss": 2719,
      "ete": 2720,
      "Who": 2721,
      "Ġmistake": 2722,
      "Ġcage": 2723,
      "ser": 2724,
      "Ġgets": 2725,
      "light": 2726,
      "Ġrocket": 2727,
      "Ġcap": 2728,
      "Ġmir": 2729,
      "Ġcomfortable": 2730,
      "Ġsugar": 2731,
      "Ġeld": 2732,
      "Ġstuff": 2733,
      "Ġpacked": 2734,
      "Ġdancing": 2735,
      "pecially": 2736,
      "Ġespecially": 2737,
      "Ġwander": 2738,
      "Ġclown": 2739,
      "Ġmedic": 2740,
      "Ġnumber": 2741,
      "Ġpress": 2742,
      "Ġsight": 2743,
      "Ġknight": 2744,
      "ggs": 2745,
      "ots": 2746,
      "Ġfruits": 2747,
      "iness": 2748,
      "ĠEventually": 2749,
      "Ġeggs": 2750,
      "Ġlying": 2751,
      "Ġdrum": 2752,
      "Ġpus": 2753,
      "Ġfake": 2754,
      "Ġdest": 2755,
      "ror": 2756,
      "Ġmedicine": 2757,
      "Ġwalks": 2758,
      "Ġdistance": 2759,
      "aged": 2760,
      "Ġglue": 2761,
      "ĠMandy": 2762,
      "Ġsplashed": 2763,
      "ĠNo": 2764,
      "Ġsweetie": 2765,
      "ĠU": 2766,
      "Ġbake": 2767,
      "Ġflut": 2768,
      "Ġbone": 2769,
      "ĠBlue": 2770,
      "Ġdrawing": 2771,
      "Ġmoving": 2772,
      "ĠKitty": 2773,
      "Ġdisappeared": 2774,
      "Ġweek": 2775,
      "ĠOK": 2776,
      "Ġlead": 2777,
      "Ġsmelly": 2778,
      "Ġclap": 2779,
      "Ġbecome": 2780,
      "Ġlemon": 2781,
      "Ġchange": 2782,
      "Ġpray": 2783,
      "Ġfeathers": 2784,
      "ha": 2785,
      "Ġmoms": 2786,
      "Ġlose": 2787,
      "ĠIf": 2788,
      "Ġmov": 2789,
      "Ġlicked": 2790,
      "Ġcalling": 2791,
      "Ġtwist": 2792,
      "Ġdogs": 2793,
      "Ġbathroom": 2794,
      "ĠPete": 2795,
      "Ġplayground": 2796,
      "ory": 2797,
      "yal": 2798,
      "ĠFred": 2799,
      "Ġfis": 2800,
      "Ġlazy": 2801,
      "Ġroar": 2802,
      "Ġelderly": 2803,
      "Ġweak": 2804,
      "Ġincred": 2805,
      "Ġcri": 2806,
      "Ġgar": 2807,
      "?\".": 2808,
      "Ġbody": 2809,
      "Now": 2810,
      "Ġhorn": 2811,
      "Ġexam": 2812,
      "Ġcrack": 2813,
      "Ġquestions": 2814,
      "Ġadd": 2815,
      "Ġwrote": 2816,
      "Ġyog": 2817,
      "Ġyours": 2818,
      "Ġnoisy": 2819,
      "Ġfather": 2820,
      "Ġmirror": 2821,
      "uggest": 2822,
      "Ġmic": 2823,
      "Ġnod": 2824,
      "Ġsuggest": 2825,
      "ating": 2826,
      "elp": 2827,
      "eez": 2828,
      "Ġfluffy": 2829,
      "Ġskipped": 2830,
      "Ġed": 2831,
      "Ġwheel": 2832,
      "Ġeager": 2833,
      "Ġloyal": 2834,
      "Ġlamp": 2835,
      "Ġdish": 2836,
      "Ġext": 2837,
      "Ġclear": 2838,
      "Ġfamous": 2839,
      "ĠEllie": 2840,
      "land": 2841,
      "ĠEnd": 2842,
      "Ġdig": 2843,
      "Ġstones": 2844,
      "Ġruined": 2845,
      "ination": 2846,
      "Ġrich": 2847,
      "Ġrare": 2848,
      "Ġord": 2849,
      "Ġtape": 2850,
      "Ġsell": 2851,
      "Ġdrank": 2852,
      "Ġcontent": 2853,
      "Ġfigure": 2854,
      "Ġqueen": 2855,
      "Ġmarch": 2856,
      "Ġincredible": 2857,
      "Ġglow": 2858,
      "Ġmap": 2859,
      "Ġshows": 2860,
      "Ġrid": 2861,
      "ti": 2862,
      "Ġcheck": 2863,
      "Ġjuicy": 2864,
      "Ġsoap": 2865,
      "Ġcovered": 2866,
      "Ġind": 2867,
      "Ġballs": 2868,
      "Ġsailed": 2869,
      "Ġrelax": 2870,
      "Ġaw": 2871,
      "Ġshoot": 2872,
      "illi": 2873,
      "hip": 2874,
      "Ġteam": 2875,
      "ately": 2876,
      "Ġmeasure": 2877,
      "Ġdecide": 2878,
      "Ġrealised": 2879,
      "umbled": 2880,
      "Ġdiscovered": 2881,
      "Ġcoins": 2882,
      "Ġneeds": 2883,
      "Ġborrow": 2884,
      "Ġswan": 2885,
      "Ġstraw": 2886,
      "ĠElla": 2887,
      "fic": 2888,
      "Ġadventur": 2889,
      "cept": 2890,
      "Help": 2891,
      "Ġcleaned": 2892,
      "Ġbranches": 2893,
      "Ġtowel": 2894,
      "Ġboys": 2895,
      "Ġextra": 2896,
      "Ġham": 2897,
      "asing": 2898,
      "imp": 2899,
      "ĠMar": 2900,
      "Well": 2901,
      "Ġboard": 2902,
      "ĠBella": 2903,
      "Be": 2904,
      "Ġchicken": 2905,
      "Ġbarn": 2906,
      "Ġmod": 2907,
      "Ġtiger": 2908,
      "Ġmotor": 2909,
      "Ġtag": 2910,
      "Ġadventurous": 2911,
      "Ġjoke": 2912,
      "Ġdiffic": 2913,
      "Ġoffered": 2914,
      "Ġfine": 2915,
      "keep": 2916,
      "Ġbalance": 2917,
      "ĠBrown": 2918,
      "Ġlifted": 2919,
      "ique": 2920,
      "Ġbubbles": 2921,
      "Ġcolourful": 2922,
      "Ġfrown": 2923,
      "Ġturt": 2924,
      "ĠRose": 2925,
      "Ġeye": 2926,
      "Ġthick": 2927,
      "Ġdifficult": 2928,
      "Ġbottom": 2929,
      "Ġtrack": 2930,
      "Ġtoug": 2931,
      "alous": 2932,
      "Ġorganized": 2933,
      "Ġcover": 2934,
      "Ġhappening": 2935,
      "Ġunique": 2936,
      "rag": 2937,
      "Ġjealous": 2938,
      "Ġdolp": 2939,
      "Ġhose": 2940,
      "port": 2941,
      "Ġknife": 2942,
      "Ġweird": 2943,
      "Ġisland": 2944,
      "ĠBobo": 2945,
      "cil": 2946,
      "Ġgarage": 2947,
      "ĠMrs": 2948,
      "Ġfright": 2949,
      "Ġmanaged": 2950,
      "imed": 2951,
      "Ġhurts": 2952,
      "Ġpencil": 2953,
      "Ġonce": 2954,
      "Ġword": 2955,
      "ject": 2956,
      "Ġcrawled": 2957,
      "Ġcost": 2958,
      "Ġlearning": 2959,
      "Ġarg": 2960,
      "Ġcircle": 2961,
      "Ġsaying": 2962,
      "ĠDave": 2963,
      "Ġkindness": 2964,
      "ured": 2965,
      "Me": 2966,
      "Ġberries": 2967,
      "Ġtough": 2968,
      "olog": 2969,
      "ĠMike": 2970,
      "ĠFr": 2971,
      "Ġmighty": 2972,
      "Ġballoons": 2973,
      "Ġpointing": 2974,
      "Ġchase": 2975,
      "Ġbald": 2976,
      "Ġfavour": 2977,
      "ready": 2978,
      "Ġwand": 2979,
      "ddy": 2980,
      "Ġter": 2981,
      "lies": 2982,
      "keeper": 2983,
      "Ġshake": 2984,
      "iv": 2985,
      "Ġjewel": 2986,
      "Ġlouder": 2987,
      "ipper": 2988,
      "Ġadded": 2989,
      "ages": 2990,
      "Ġbatter": 2991,
      "Ġsil": 2992,
      "Ġhunt": 2993,
      "Ġguit": 2994,
      "Ġharder": 2995,
      "Ġguess": 2996,
      "Ġapolog": 2997,
      "Ġunus": 2998,
      "Ġedge": 2999,
      "head": 3000,
      "Ġalready": 3001,
      "Ġfour": 3002,
      "ĠTweety": 3003,
      "Ġang": 3004,
      "Ġspun": 3005,
      "Ġfavourite": 3006,
      "Ġfool": 3007,
      "Ġnorm": 3008,
      "Ġwhale": 3009,
      "ipp": 3010,
      "Ġunusual": 3011,
      "Ġlibr": 3012,
      "Ġvalu": 3013,
      "rage": 3014,
      "alk": 3015,
      "Ġenjoying": 3016,
      "Ġdizzy": 3017,
      "ĠGrandpa": 3018,
      "aw": 3019,
      "Ġhats": 3020,
      "Ġpump": 3021,
      "Ġbelonged": 3022,
      "Ġgrace": 3023,
      "Ġwrapped": 3024,
      "Ġcheerful": 3025,
      "Ġsmoke": 3026,
      "uggled": 3027,
      "Ġimpressed": 3028,
      "Ġstrawber": 3029,
      "Ġtrucks": 3030,
      "Ġrecord": 3031,
      "Ġgiving": 3032,
      "Ġsword": 3033,
      "Ġmarket": 3034,
      "Ġgrown": 3035,
      "Ġref": 3036,
      "Ġlaughs": 3037,
      "Ġtrunk": 3038,
      "Ġnormal": 3039,
      "anged": 3040,
      "Ġgrand": 3041,
      "Ġhero": 3042,
      "Ġears": 3043,
      "Ġguitar": 3044,
      "Ġloudly": 3045,
      "ola": 3046,
      "illiant": 3047,
      "Ġharm": 3048,
      "Ġturtle": 3049,
      "Ġbanana": 3050,
      "Ġproudly": 3051,
      "Ġboxes": 3052,
      "Ġscare": 3053,
      "ature": 3054,
      "ĠSoph": 3055,
      "ilt": 3056,
      "Ġbrilliant": 3057,
      "Ġchoose": 3058,
      "Ġbrothers": 3059,
      "ery": 3060,
      "Ġcircles": 3061,
      "Ġwhisp": 3062,
      "Ġterri": 3063,
      "Here": 3064,
      "Ġbossy": 3065,
      "Tim": 3066,
      "Ġdreamed": 3067,
      "Ġagainst": 3068,
      "Ġescape": 3069,
      "ym": 3070,
      "Ġgoat": 3071,
      "Ġinvited": 3072,
      "Ġskin": 3073,
      "Ġcab": 3074,
      "Ġhelps": 3075,
      "gy": 3076,
      "cient": 3077,
      "Ġcompet": 3078,
      "Ġpil": 3079,
      "ipe": 3080,
      "Ġpainting": 3081,
      "Ġmeans": 3082,
      "Ġmelt": 3083,
      "Ġfrightened": 3084,
      "Ġaccept": 3085,
      "fast": 3086,
      "Ġpee": 3087,
      "Ġflash": 3088,
      "Ġsafely": 3089,
      "Ġdepend": 3090,
      "Ġbuttons": 3091,
      "Ġslipped": 3092,
      "Ġdesign": 3093,
      "Ġstubb": 3094,
      "Ġbirdie": 3095,
      "Ġjack": 3096,
      "Ġwrap": 3097,
      "Ġvaluable": 3098,
      "Ġcabin": 3099,
      "Ġcrayon": 3100,
      "Ġwake": 3101,
      "Ġstream": 3102,
      "Ġwalls": 3103,
      "Ġhappiness": 3104,
      "ouses": 3105,
      "Ġbreakfast": 3106,
      "Ġlog": 3107,
      "erry": 3108,
      "Ġancient": 3109,
      "edient": 3110,
      "Ġstudy": 3111,
      "Ġsuccessful": 3112,
      "Ġclay": 3113,
      "emo": 3114,
      "orge": 3115,
      "Ġknows": 3116,
      "Ġfoolish": 3117,
      "Ġtoast": 3118,
      "ĠLola": 3119,
      "ĠMy": 3120,
      "Ġfalls": 3121,
      "ye": 3122,
      "Ġfridge": 3123,
      "Ġlean": 3124,
      "ĠNemo": 3125,
      "Ġstubborn": 3126,
      "Ġunl": 3127,
      "Ġnicely": 3128,
      "atch": 3129,
      "Ġshape": 3130,
      "apping": 3131,
      "omed": 3132,
      "Ġfier": 3133,
      "ĠGe": 3134,
      "Ġcudd": 3135,
      "Ġrough": 3136,
      "Ġdreams": 3137,
      "Ġmovie": 3138,
      "Ġspace": 3139,
      "Ġhouses": 3140,
      "Ġcity": 3141,
      "Ġnosy": 3142,
      "Ġbloom": 3143,
      "Ġdelicate": 3144,
      "Ġobedient": 3145,
      "Ġfierce": 3146,
      "Ġoffice": 3147,
      "Ġtomato": 3148,
      "Ġfat": 3149,
      "Ġgrandpa": 3150,
      "ado": 3151,
      "az": 3152,
      "laimed": 3153,
      "Ġicy": 3154,
      "Ġcompetit": 3155,
      "Ġsuggested": 3156,
      "Ġshark": 3157,
      "Ġdead": 3158,
      "Ġnotice": 3159,
      "Ġwagon": 3160,
      "pes": 3161,
      "Ġexclaimed": 3162,
      "Ġmem": 3163,
      "Ġkinds": 3164,
      "Ġmixed": 3165,
      "Ġwiped": 3166,
      "Ġcher": 3167,
      "Ġuseful": 3168,
      "ext": 3169,
      "Ġpoured": 3170,
      "Ġshells": 3171,
      "uth": 3172,
      "ÅĵLet": 3173,
      "Ġstri": 3174,
      "Ġlights": 3175,
      "Ġlocked": 3176,
      "Ġsounded": 3177,
      "Ġtools": 3178,
      "Ġthu": 3179,
      "Ġstove": 3180,
      "Ġexcitedly": 3181,
      "Ġexplored": 3182,
      "Ġaunt": 3183,
      "wards": 3184,
      "Ġegg": 3185,
      "Ġfrag": 3186,
      "Ġrose": 3187,
      "!\".": 3188,
      "Ġson": 3189,
      "oppy": 3190,
      "Ġshadow": 3191,
      "Ġtimes": 3192,
      "Ġcro": 3193,
      "Ġenc": 3194,
      "Ġbags": 3195,
      "Ġfountain": 3196,
      "ention": 3197,
      "oot": 3198,
      "Ġthemselves": 3199,
      "ĠGeorge": 3200,
      "Ġstumbled": 3201,
      "Ġbushes": 3202,
      "Ġweal": 3203,
      "ache": 3204,
      "dom": 3205,
      "Ġlow": 3206,
      "arry": 3207,
      "Ġshowing": 3208,
      "Ġspoiled": 3209,
      "rell": 3210,
      "Ġfingers": 3211,
      "Ġperform": 3212,
      "Ġlab": 3213,
      "Ġabove": 3214,
      "vice": 3215,
      "Ġthoughtful": 3216,
      "Ġresc": 3217,
      "ĠDucky": 3218,
      "Ġindepend": 3219,
      "kn": 3220,
      "Ġsmaller": 3221,
      "Ġwitch": 3222,
      "Ġdough": 3223,
      "na": 3224,
      "Ġfragile": 3225,
      "Ġdependable": 3226,
      "Ġraced": 3227,
      "Ġjog": 3228,
      "ray": 3229,
      "ĠWhenever": 3230,
      "arth": 3231,
      "Ġplayful": 3232,
      "inal": 3233,
      "Ġseem": 3234,
      "Ġhelm": 3235,
      "Ġspinning": 3236,
      "Ġeng": 3237,
      "Ġtele": 3238,
      "corn": 3239,
      "Ġclock": 3240,
      "Ġbrightly": 3241,
      "ines": 3242,
      "Ġprint": 3243,
      "Ġrode": 3244,
      "Ġstretch": 3245,
      "Ġparrot": 3246,
      "ormous": 3247,
      "Ġdelighted": 3248,
      "Ġbuilt": 3249,
      "Ġadmired": 3250,
      "Ġlaw": 3251,
      "Ġenormous": 3252,
      "ĠCl": 3253,
      "ĠSn": 3254,
      "Ġkicked": 3255,
      "Ġroof": 3256,
      "Ġcounted": 3257,
      "Ġjam": 3258,
      "Ġswe": 3259,
      "Ġrat": 3260,
      "Ġpractice": 3261,
      "reen": 3262,
      "Ġorig": 3263,
      "Ġways": 3264,
      "Ġchanged": 3265,
      "Ġshone": 3266,
      "Ġsunfl": 3267,
      "Ġcop": 3268,
      "Ġreminded": 3269,
      "Ġtwig": 3270,
      "Ġacorn": 3271,
      "ither": 3272,
      "Ġcam": 3273,
      "ience": 3274,
      "Ġsniff": 3275,
      "Ġzip": 3276,
      "eeze": 3277,
      "Ġhammer": 3278,
      "Ġindependent": 3279,
      "ĠYour": 3280,
      "ĠBill": 3281,
      "Ġusing": 3282,
      "Ġbitter": 3283,
      "Ġhanded": 3284,
      "Ġwhispered": 3285,
      "Ġhoop": 3286,
      "ĠToby": 3287,
      "mbrell": 3288,
      "known": 3289,
      "Ġchose": 3290,
      "Ġchir": 3291,
      "anut": 3292,
      "Ġloll": 3293,
      "Ġjolly": 3294,
      "Ġcone": 3295,
      "Ġumbrell": 3296,
      "Ġtunn": 3297,
      "Ġsolve": 3298,
      "Ġstronger": 3299,
      "Ġbees": 3300,
      "Ġserious": 3301,
      "ipop": 3302,
      "Ġoriginal": 3303,
      "Ġtummy": 3304,
      "Ġsteal": 3305,
      "Ġbeak": 3306,
      "Ġbrace": 3307,
      "Ġterrible": 3308,
      "Ġmis": 3309,
      "ÅĵYes": 3310,
      "Ġpopcorn": 3311,
      "Ġfre": 3312,
      "Ġlollipop": 3313,
      "Ġpainted": 3314,
      "Ġboats": 3315,
      "Ġallowed": 3316,
      "Ġhairy": 3317,
      "ict": 3318,
      "Ġmoder": 3319,
      "iable": 3320,
      "Ġsauce": 3321,
      "Ġcleaning": 3322,
      "Ġunknown": 3323,
      "Ġleaving": 3324,
      "Ġdust": 3325,
      "Ġgasped": 3326,
      "Ġfinding": 3327,
      "Ġjoined": 3328,
      "Ġguard": 3329,
      "Ġsalad": 3330,
      "Ġpotato": 3331,
      "het": 3332,
      "Ġbean": 3333,
      "Ġpumpkin": 3334,
      "iew": 3335,
      "Ġpicking": 3336,
      "Ġclum": 3337,
      "inary": 3338,
      "Ġdove": 3339,
      "anger": 3340,
      "Ġbump": 3341,
      "Ġhalf": 3342,
      "Ġsink": 3343,
      "amond": 3344,
      "Ġcostum": 3345,
      "uring": 3346,
      "ĠJoey": 3347,
      "Ġyet": 3348,
      "robe": 3349,
      "Ġmetal": 3350,
      "Ġtank": 3351,
      "Ġbounce": 3352,
      "Ġreliable": 3353,
      "Ġpost": 3354,
      "Ġtor": 3355,
      "Ġview": 3356,
      "Ġdoesn": 3357,
      "Ġthose": 3358,
      "Ġforth": 3359,
      "aghet": 3360,
      "aghetti": 3361,
      "Ġdiamond": 3362,
      "Ġdolphin": 3363,
      "Ġadvice": 3364,
      "com": 3365,
      "Ġhay": 3366,
      "Ġbarber": 3367,
      "Ġmodern": 3368,
      "pid": 3369,
      "ĠKim": 3370,
      "Ġstamp": 3371,
      "Ġrubb": 3372,
      "Ġthinking": 3373,
      "Ġgem": 3374,
      "Ġing": 3375,
      "Ġholds": 3376,
      "gu": 3377,
      "ebra": 3378,
      "Ġpirate": 3379,
      "ugged": 3380,
      "Ġmarble": 3381,
      "Ġcreate": 3382,
      "How": 3383,
      "Ġregular": 3384,
      "ĠPe": 3385,
      "redient": 3386,
      "Ġingredient": 3387,
      "Ġclumsy": 3388,
      "Ġsleeping": 3389,
      "Ġsearching": 3390,
      "Ġstairs": 3391,
      "Ġwealthy": 3392,
      "Ġyarn": 3393,
      "See": 3394,
      "Ġrushed": 3395,
      "Ġstupid": 3396,
      "Ġprep": 3397,
      "ilty": 3398,
      "Ġtelling": 3399,
      "Ġspaghetti": 3400,
      "Ġguilty": 3401,
      "Ġcheap": 3402,
      "Ġpeanut": 3403,
      "Ġgoose": 3404,
      "Ġchar": 3405,
      "ÅĵWhat": 3406,
      "ĠRo": 3407,
      "cu": 3408,
      "Ġrub": 3409,
      "Ġmagn": 3410,
      "ations": 3411,
      "Ġflex": 3412,
      "ĠPolly": 3413,
      "Ġcompass": 3414,
      "Ġopens": 3415,
      "Ġmask": 3416,
      "Ġpatch": 3417,
      "Ġstat": 3418,
      "Ġarrow": 3419,
      "Ġzebra": 3420,
      "Ġengine": 3421,
      "ĠAndy": 3422,
      "ĠSophie": 3423,
      "io": 3424,
      "Ġthunder": 3425,
      "Ġknock": 3426,
      "Ġsquare": 3427,
      "ĠBa": 3428,
      "illa": 3429,
      "eezed": 3430,
      "irsty": 3431,
      "Ġangel": 3432,
      "ĠBear": 3433,
      "Ġcur": 3434,
      "Ġgraceful": 3435,
      "Ġcamera": 3436,
      "Ġumbrella": 3437,
      "cod": 3438,
      "Ġdriving": 3439,
      "Ġbull": 3440,
      "Ġcrazy": 3441,
      "âĤ¬âĢ": 3442,
      "Ġshiver": 3443,
      "Ġwashed": 3444,
      "Ġcarrying": 3445,
      "Ġstage": 3446,
      "isk": 3447,
      "Ġpopular": 3448,
      "Ġbeet": 3449,
      "Ġdull": 3450,
      "umbers": 3451,
      "ÅĵIt": 3452,
      "Ġmissing": 3453,
      "ĠAlex": 3454,
      "Ġsparkled": 3455,
      "Ġfriendship": 3456,
      "Ġtruth": 3457,
      "shion": 3458,
      "Ġmeal": 3459,
      "Ġseeds": 3460,
      "fa": 3461,
      "Go": 3462,
      "Ġflexible": 3463,
      "Ġimpressive": 3464,
      "Ġsne": 3465,
      "Ġtied": 3466,
      "Ġpebble": 3467,
      "time": 3468,
      "Ġcareless": 3469,
      "Ġlibrary": 3470,
      "Ġimagined": 3471,
      "Ġcomb": 3472,
      "Ġfresh": 3473,
      "Ġdeliver": 3474,
      "Ġnature": 3475,
      "Ġshel": 3476,
      "Ġending": 3477,
      "Ġpatter": 3478,
      "Ġdestro": 3479,
      "Ġjacket": 3480,
      "Ġpersist": 3481,
      "Ġreward": 3482,
      "Ġhandle": 3483,
      "ision": 3484,
      "Ġrubbed": 3485,
      "Ġingredients": 3486,
      "Ġdreaming": 3487,
      "Ġshocked": 3488,
      "ric": 3489,
      "Ġprize": 3490,
      "oomy": 3491,
      "Ġsudden": 3492,
      "Ġcrocod": 3493,
      "Ġload": 3494,
      "Ġenth": 3495,
      "ief": 3496,
      "ibb": 3497,
      "Ġpige": 3498,
      "Ġpattern": 3499,
      "Ġcompassion": 3500,
      "Ġenvel": 3501,
      "ĠNext": 3502,
      "Ġflashlight": 3503,
      "Ġthirsty": 3504,
      "Ġsadly": 3505,
      "Ġencou": 3506,
      "Ġstranger": 3507,
      "arsh": 3508,
      "ince": 3509,
      "Ġenthus": 3510,
      "Ġwheels": 3511,
      "Ġdesk": 3512,
      "ÅĵLetÃ¢": 3513,
      "ement": 3514,
      "Re": 3515,
      "Ġreading": 3516,
      "Ġwire": 3517,
      "Ġdiscover": 3518,
      "Ġearly": 3519,
      "Ġmailbox": 3520,
      "Ġfork": 3521,
      "Ġsuit": 3522,
      "ĠCharl": 3523,
      "Ġnumbers": 3524,
      "Ġtem": 3525,
      "Ġpeeked": 3526,
      "Ġpenny": 3527,
      "Ġbutterflies": 3528,
      "awn": 3529,
      "Ġcryst": 3530,
      "Ġspilled": 3531,
      "Ġbracelet": 3532,
      "Ġtorn": 3533,
      "Ġrug": 3534,
      "Ġgum": 3535,
      "Ġstops": 3536,
      "loo": 3537,
      "ĠPaul": 3538,
      "Ġrece": 3539,
      "Ġenv": 3540,
      "Ġcomput": 3541,
      "Ġahead": 3542,
      "Ġspring": 3543,
      "bled": 3544,
      "Ġorder": 3545,
      "Ġtowers": 3546,
      "comfort": 3547,
      "Ġsorts": 3548,
      "Ġobject": 3549,
      "ellig": 3550,
      "Ġwing": 3551,
      "Ġbent": 3552,
      "Ġcere": 3553,
      "Ġanx": 3554,
      "Ġsurf": 3555,
      "oe": 3556,
      "Ġpengu": 3557,
      "Ġearth": 3558,
      "Ġintellig": 3559,
      "Ġwarned": 3560,
      "Ġwindows": 3561,
      "Ġspoke": 3562,
      "Ġpow": 3563,
      "Ġpup": 3564,
      "gest": 3565,
      "Ġhumble": 3566,
      "There": 3567,
      "Ġuncomfort": 3568,
      "Ġavo": 3569,
      "Ġpant": 3570,
      "Ġnote": 3571,
      "Ġuncomfortable": 3572,
      "Ġplaced": 3573,
      "Yay": 3574,
      "iches": 3575,
      "Ġsunflower": 3576,
      "Ġpale": 3577,
      "Ġtravel": 3578,
      "Ġsuper": 3579,
      "Ġbadly": 3580,
      "Ġolder": 3581,
      "Ġslides": 3582,
      "Ġanxious": 3583,
      "ikes": 3584,
      "Ġbiggest": 3585,
      "Ġscale": 3586,
      "Ġcompl": 3587,
      "ĠcouldnÃ¢": 3588,
      "Ġstack": 3589,
      "Ġflute": 3590,
      "Ġtrap": 3591,
      "Ġstatue": 3592,
      "Ġscoot": 3593,
      "Ġcounting": 3594,
      "Ġgrowing": 3595,
      "Ġcooking": 3596,
      "Ow": 3597,
      "Ġcomplet": 3598,
      "Ġliz": 3599,
      "Ġtunnel": 3600,
      "Ġbeetle": 3601,
      "Ġcelebrate": 3602,
      "host": 3603,
      "Ġmel": 3604,
      "Ġcupboard": 3605,
      "ĠHere": 3606,
      "Ġmush": 3607,
      "They": 3608,
      "Ġsofa": 3609,
      "Ġnail": 3610,
      "Ġharmless": 3611,
      "Ġscatter": 3612,
      "ĠPat": 3613,
      "Ġbeauty": 3614,
      "Ġmole": 3615,
      "Ġdeaf": 3616,
      "Ġvalue": 3617,
      "Ġnurse": 3618,
      "Ġperm": 3619,
      "Ġer": 3620,
      "Ġshut": 3621,
      "Ġpersistent": 3622,
      "Ġjumps": 3623,
      "Ġcrocodile": 3624,
      "Ġhung": 3625,
      "Ġghost": 3626,
      "Ġgifted": 3627,
      "Ġrefused": 3628,
      "Ġcharming": 3629,
      "Ġtrick": 3630,
      "ĠGive": 3631,
      "Ġneat": 3632,
      "Ġnames": 3633,
      "Ġcourage": 3634,
      "opus": 3635,
      "Ġyawn": 3636,
      "Ġflour": 3637,
      "ctopus": 3638,
      "Ġcrane": 3639,
      "Ġcurt": 3640,
      "Ġpretending": 3641,
      "cream": 3642,
      "Ġpony": 3643,
      "Ġcereal": 3644,
      "Ġbase": 3645,
      "Ġsandwiches": 3646,
      "ĠHen": 3647,
      "ices": 3648,
      "Ġraven": 3649,
      "Ġsnuggled": 3650,
      "Ġcurtain": 3651,
      "Ġdestroy": 3652,
      "Ġsupport": 3653,
      "Ġtur": 3654,
      "Ġordinary": 3655,
      "ĠUn": 3656,
      "Ġchasing": 3657,
      "Ġuniver": 3658,
      "ĠLook": 3659,
      "aid": 3660,
      "Ġquestion": 3661,
      "Ġenvelope": 3662,
      "aches": 3663,
      "Ġdrawer": 3664,
      "Ġtriang": 3665,
      "Ġvi": 3666,
      "Ġcamp": 3667,
      "Ġsett": 3668,
      "ud": 3669,
      "Ġcomputer": 3670,
      "Ġoctopus": 3671,
      "Ġattract": 3672,
      "Ġrules": 3673,
      "Ġcrawl": 3674,
      "Ġlively": 3675,
      "Ġsend": 3676,
      "Ġgloomy": 3677,
      "Ġcartoon": 3678,
      "Ġuncle": 3679,
      "ips": 3680,
      "Ġintelligent": 3681,
      "Ġmay": 3682,
      "Ġpiano": 3683,
      "Ġspeed": 3684,
      "Ġpackage": 3685,
      "Ġblueber": 3686,
      "Ġshaking": 3687,
      "Ġfu": 3688,
      "Ġhelmet": 3689,
      "Ġcrystal": 3690,
      "Ġneedle": 3691,
      "Ġmushroom": 3692,
      "Ġturkey": 3693,
      "Ġcollar": 3694,
      "He": 3695,
      "Ġparade": 3696,
      "Ġcreatures": 3697,
      "stri": 3698,
      "heart": 3699,
      "ÅĵThat": 3700,
      "Ġhurry": 3701,
      "Ġtwirled": 3702,
      "Ġphot": 3703,
      "Ġlizard": 3704,
      "erable": 3705,
      "aff": 3706,
      "orant": 3707,
      "ubby": 3708,
      "Ġalert": 3709,
      "Ġmiserable": 3710,
      "Ġthief": 3711,
      "gust": 3712,
      "und": 3713,
      "Ġstation": 3714,
      "Ġsoldier": 3715,
      "Ġhunter": 3716,
      "ĠGrace": 3717,
      "Ġpepper": 3718,
      "ceed": 3719,
      "Ġtask": 3720,
      "ĠWill": 3721,
      "Ġanywhere": 3722,
      "Ġdug": 3723,
      "Ġdisgust": 3724,
      "Ġbicy": 3725,
      "Ġfireman": 3726,
      "Ġener": 3727,
      "cut": 3728,
      "ĠHenry": 3729,
      "Ġcarp": 3730,
      "iest": 3731,
      "ĠBefore": 3732,
      "ses": 3733,
      "Ġwishes": 3734,
      "Ġseal": 3735,
      "Ġresist": 3736,
      "Ġled": 3737,
      "Ġvide": 3738,
      "Ġbeep": 3739,
      "Ġignorant": 3740,
      "Ġbandage": 3741,
      "Ġstickers": 3742,
      "coa": 3743,
      "ĠBrownie": 3744,
      "ĠCharlie": 3745,
      "Ġscreen": 3746,
      "Ġradio": 3747,
      "Ġhelpless": 3748,
      "Ġbounced": 3749,
      "ĠAnnie": 3750,
      "tter": 3751,
      "Ġtrash": 3752,
      "Give": 3753,
      "Ġsecond": 3754,
      "Ġleash": 3755,
      "Ġrepe": 3756,
      "Ġpracticed": 3757,
      "Ġmuff": 3758,
      "Ġshine": 3759,
      "Ġchance": 3760,
      "Ġletters": 3761,
      "Ġattractive": 3762,
      "Ġmill": 3763,
      "Ġimpat": 3764,
      "Ġstirred": 3765,
      "Ġcricket": 3766,
      "Ġjeep": 3767,
      "Ġstretched": 3768,
      "Ġnobody": 3769,
      "urb": 3770,
      "Ġthread": 3771,
      "Ġpasta": 3772,
      "Ġcube": 3773,
      "Ġpand": 3774,
      "Ġchubby": 3775,
      "Ġtooth": 3776,
      "ummer": 3777,
      "ĠSh": 3778,
      "Ġpigeon": 3779,
      "Ġjet": 3780,
      "Ġgir": 3781,
      "Ġcompassionate": 3782,
      "ccol": 3783,
      "If": 3784,
      "Ġclub": 3785,
      "ccoli": 3786,
      "ne": 3787,
      "Ġtrump": 3788,
      "Ġdisturb": 3789,
      "orable": 3790,
      "Ġdecorate": 3791,
      "ĠTweetie": 3792,
      "ĠJerry": 3793,
      "Ġcocoa": 3794,
      "Ġbrighter": 3795,
      "Ġjug": 3796,
      "Ġimpatient": 3797,
      "Ġsteps": 3798,
      "Ġtire": 3799,
      "Ġcompetitive": 3800,
      "arian": 3801,
      "Ġfurther": 3802,
      "Ġotter": 3803,
      "Ġrespectful": 3804,
      "Ġsucceed": 3805,
      "Ġtroubled": 3806,
      "Ġpressed": 3807,
      "olin": 3808,
      "ĠBet": 3809,
      "Ġitself": 3810,
      "aked": 3811,
      "Ġbet": 3812,
      "Ġostri": 3813,
      "noon": 3814,
      "Ġcandle": 3815,
      "Ġmug": 3816,
      "Ġafternoon": 3817,
      "Ġattic": 3818,
      "Ġrestless": 3819,
      "Ġstarts": 3820,
      "Ġpun": 3821,
      "ĠSandy": 3822,
      "Ġtap": 3823,
      "ĠTr": 3824,
      "Ġsomewhere": 3825,
      "illie": 3826,
      "ĠAre": 3827,
      "Ġribb": 3828,
      "aurant": 3829,
      "stic": 3830,
      "Ġdess": 3831,
      "Ġquar": 3832,
      "Ġcarpet": 3833,
      "Ġanyway": 3834,
      "Ġshouts": 3835,
      "Ġshoe": 3836,
      "Ġdisgusting": 3837,
      "ĠLilly": 3838,
      "Ġadorable": 3839,
      "Ġrestaurant": 3840,
      "Ġskip": 3841,
      "Ġleop": 3842,
      "Ġfort": 3843,
      "gn": 3844,
      "Ġpants": 3845,
      "ĠWhere": 3846,
      "Ġvine": 3847,
      "Ġtray": 3848,
      "Ġnuts": 3849,
      "Ġwaff": 3850,
      "Ġcase": 3851,
      "come": 3852,
      "Ġgor": 3853,
      "Ġfearful": 3854,
      "Ġscrew": 3855,
      "Ġenvious": 3856,
      "Ġsweetheart": 3857,
      "opter": 3858,
      "Ġcards": 3859,
      "Ġallig": 3860,
      "icopter": 3861,
      "iastic": 3862,
      "Ġdistant": 3863,
      "Ġbroccoli": 3864,
      "Ġenthusiastic": 3865,
      "ĠDanny": 3866,
      "Ġhipp": 3867,
      "ĠMag": 3868,
      "Ġfilthy": 3869,
      "ĠLee": 3870,
      "Ġgiggle": 3871,
      "Ġexper": 3872,
      "Ġtrumpet": 3873,
      "Ġcooked": 3874,
      "Ġhelicopter": 3875,
      "ĠEverything": 3876,
      "Ġmonkeys": 3877,
      "night": 3878,
      "Ġreco": 3879,
      "Ġpor": 3880,
      "irit": 3881,
      "Ġsandbox": 3882,
      "aroo": 3883,
      "angaroo": 3884,
      "Ġhook": 3885,
      "Ġharsh": 3886,
      "ĠWould": 3887,
      "Ġbri": 3888,
      "Ġadmire": 3889,
      "Ġnowhere": 3890,
      "Ġten": 3891,
      "Ġbackpack": 3892,
      "gging": 3893,
      "Ġsoar": 3894,
      "Ġsent": 3895,
      "Ġbelt": 3896,
      "Ġbatht": 3897,
      "gie": 3898,
      "Ġexplain": 3899,
      "Ġscooter": 3900,
      "Ġants": 3901,
      "ĠSnow": 3902,
      "Ġmeas": 3903,
      "opl": 3904,
      "Ġpoem": 3905,
      "eropl": 3906,
      "Ġcountry": 3907,
      "cycle": 3908,
      "Ġbathtub": 3909,
      "Ġpipe": 3910,
      "Ġaeropl": 3911,
      "Ġbarking": 3912,
      "Ġquite": 3913,
      "Ġunpack": 3914,
      "stairs": 3915,
      "par": 3916,
      "Ġcows": 3917,
      "Ġspeak": 3918,
      "Ġkangaroo": 3919,
      "Ġlid": 3920,
      "nna": 3921,
      "Ġsquash": 3922,
      "ĠMaria": 3923,
      "Ġleopard": 3924,
      "Ġmama": 3925,
      "Ġhappier": 3926,
      "Ġspell": 3927,
      "Ġrepair": 3928,
      "ĠRed": 3929,
      "Ġlistening": 3930,
      "Ġbicycle": 3931,
      "Ġsepar": 3932,
      "ĠJess": 3933,
      "imi": 3934,
      "ĠSm": 3935,
      "ĠPap": 3936,
      "Ġsummer": 3937,
      "Ġstared": 3938,
      "Ġgrabs": 3939,
      "Ġmessage": 3940,
      "Ġbreat": 3941,
      "ĠMillie": 3942,
      "ĠdidnÃ¢": 3943,
      "uct": 3944,
      "Ġostrich": 3945,
      "Ġfirework": 3946,
      "Ġhuman": 3947,
      "Ġloop": 3948,
      "Ġgiven": 3949,
      "ĠKate": 3950,
      "Ġcomet": 3951,
      "Ġmule": 3952,
      "hood": 3953,
      "ĠBaby": 3954,
      "Ġsort": 3955,
      "Ġimpro": 3956,
      "ĠBunny": 3957,
      "Ġgorilla": 3958,
      "Ġmodest": 3959,
      "Ġpaid": 3960,
      "Ġfinds": 3961,
      "year": 3962,
      "Ġyogurt": 3963,
      "Ġdessert": 3964,
      "Ġmeat": 3965,
      "Ġobser": 3966,
      "Ġviolin": 3967,
      "Ġur": 3968,
      "Bye": 3969,
      "Ġhedge": 3970,
      "ipping": 3971,
      "Ġspirit": 3972,
      "ĠTed": 3973,
      "Ġpulls": 3974,
      "Ġtripped": 3975,
      "Ġjellyfish": 3976,
      "Ġmelon": 3977,
      "Ġsplit": 3978,
      "ĠPapa": 3979,
      "Ġpaws": 3980,
      "Ġalligator": 3981,
      "Ġfle": 3982,
      "Ġrescue": 3983,
      "Ġsize": 3984,
      "Ġholes": 3985,
      "Ġprov": 3986,
      "ĠHarry": 3987,
      "ucked": 3988,
      "Ġroared": 3989,
      "Ġfive": 3990,
      "Ġforgave": 3991,
      "ĠMimi": 3992,
      "Ġcats": 3993,
      "Ġwheat": 3994,
      "Ġpurse": 3995,
      "Ġrecogn": 3996,
      "Ġhippo": 3997,
      "Ġpilot": 3998,
      "Ġhall": 3999,
      "Ġtax": 4000,
      "Ġsheet": 4001,
      "Ġpal": 4002,
      "Ġcact": 4003,
      "Ġinse": 4004,
      "Ġpushing": 4005,
      "ophone": 4006,
      "Ġbikes": 4007,
      "Ġorganize": 4008,
      "ci": 4009,
      "Ġswinging": 4010,
      "Ġsle": 4011,
      "Ġraft": 4012,
      "Ġsalt": 4013,
      "Ġscold": 4014,
      "Ġstarting": 4015,
      "Ġshade": 4016,
      "Ġbehave": 4017,
      "Ġbin": 4018,
      "Ġlightning": 4019,
      "Ġoat": 4020,
      "Ġrice": 4021,
      "Ġhaircut": 4022,
      "ĠBuddy": 4023,
      "Ġbrus": 4024,
      "Ġtriangle": 4025,
      "eer": 4026,
      "Ġbuzz": 4027,
      "ĠRos": 4028,
      "Ġenergy": 4029,
      "iskers": 4030,
      "ÅĵYou": 4031,
      "Ġbur": 4032,
      "Ġknot": 4033,
      "Ġfrowned": 4034,
      "bul": 4035,
      "Ġlear": 4036,
      "aled": 4037,
      "Ġlearnt": 4038,
      "Ġeither": 4039,
      "Ġporch": 4040,
      "Ġmath": 4041,
      "Ġriding": 4042,
      "Ġped": 4043,
      "Ġlip": 4044,
      "lcano": 4045,
      "seum": 4046,
      "Ġtrains": 4047,
      "Anna": 4048,
      "ebook": 4049,
      "Ġended": 4050,
      "Ġnotebook": 4051,
      "Ġsticker": 4052,
      "iling": 4053,
      "inking": 4054,
      "Ġlend": 4055,
      "Ġwallet": 4056,
      "Ġluck": 4057,
      "Ġevening": 4058,
      "reci": 4059,
      "Ġpanda": 4060,
      "ĠWhiskers": 4061,
      "Ġcactus": 4062,
      "Ġjokes": 4063,
      "Ġchalk": 4064,
      "Ġbananas": 4065,
      "Ġpapers": 4066,
      "Ġrod": 4067,
      "Ġmuseum": 4068,
      "Ġsweater": 4069,
      "Ġappreci": 4070,
      "Ġlions": 4071,
      "Ġpalace": 4072,
      "ĠRu": 4073,
      "Ġtaxi": 4074,
      "Ġvolcano": 4075,
      "ube": 4076,
      "Ġshopkeeper": 4077,
      "Ġchain": 4078,
      "Ġstrawberry": 4079,
      "Ġbears": 4080,
      "Ġrolling": 4081,
      "Ġboots": 4082,
      "Ġeras": 4083,
      "Ġhadn": 4084,
      "astic": 4085,
      "Ġneighbour": 4086,
      "Ġbarrel": 4087,
      "Ġshakes": 4088,
      "ffe": 4089,
      "Ġmicr": 4090,
      "ĠTony": 4091,
      "icer": 4092,
      "ffee": 4093,
      "ooped": 4094,
      "Ġsilver": 4095,
      "urch": 4096,
      "Ġlaund": 4097,
      "Ġalive": 4098,
      "Ġsmells": 4099,
      "Ġmild": 4100,
      "play": 4101,
      "Ġreind": 4102,
      "Ġsock": 4103,
      "Ġlaundry": 4104,
      "Ġsteak": 4105,
      "Ġavoc": 4106,
      "Ġink": 4107,
      "Ġpole": 4108,
      "Ġstrugg": 4109,
      "iron": 4110,
      "Ġpushes": 4111,
      "Ġputting": 4112,
      "Ġvisited": 4113,
      "Ġgoal": 4114,
      "Ġsoftly": 4115,
      "Ġmagnet": 4116,
      "Ġjudge": 4117,
      "edy": 4118,
      "ĠJames": 4119,
      "Ġtricks": 4120,
      "Ġdrawings": 4121,
      "Ġmicrophone": 4122,
      "Ġclapping": 4123,
      "Ġpad": 4124,
      "Ġol": 4125,
      "Ġhive": 4126,
      "Ġshield": 4127,
      "Ġtube": 4128,
      "Ġleaned": 4129,
      "Ġcolours": 4130,
      "Ġsailor": 4131,
      "Ġshovel": 4132,
      "Ġairport": 4133,
      "Ġzoomed": 4134,
      "Ġfalling": 4135,
      "Ġrag": 4136,
      "Ġbelongs": 4137,
      "Ġshelter": 4138,
      "ĠBun": 4139,
      "Ġunlock": 4140,
      "Ġsprink": 4141,
      "ĠInst": 4142,
      "Ġchecked": 4143,
      "elery": 4144,
      "Ġinsist": 4145,
      "Ġpenguin": 4146,
      "Ġquarrel": 4147,
      "happy": 4148,
      "Ġambul": 4149,
      "Ġclimbing": 4150,
      "Ġmarched": 4151,
      "Ġgro": 4152,
      "Ġdisplay": 4153,
      "Ġreindeer": 4154,
      "cast": 4155,
      "hino": 4156,
      "Ġsaus": 4157,
      "ense": 4158,
      "Ġaeroplane": 4159,
      "Ġdive": 4160,
      "Ġdishes": 4161,
      "ophy": 4162,
      "ĠKat": 4163,
      "Ġpolish": 4164,
      "Ġbarks": 4165,
      "ges": 4166,
      "Ġavail": 4167,
      "ĠMaggie": 4168,
      "ĠdonÃ¢": 4169,
      "Ġfields": 4170,
      "Ġgrapes": 4171,
      "Ġsandcast": 4172,
      "Ġambulance": 4173,
      "Ġpeek": 4174,
      "ĠOr": 4175,
      "ait": 4176,
      "Ġapologized": 4177,
      "Ġyach": 4178,
      "Ġsoil": 4179,
      "Ġcoffee": 4180,
      "Ġskill": 4181,
      "sely": 4182,
      "Ġcostume": 4183,
      "Ġelev": 4184,
      "Ġoy": 4185,
      "Ġtrophy": 4186,
      "Ġfeelings": 4187,
      "Ġplanet": 4188,
      "Ġhoping": 4189,
      "anic": 4190,
      "Ġfilm": 4191,
      "Ġprun": 4192,
      "Ġart": 4193,
      "Ġrubber": 4194,
      "Ġunhappy": 4195,
      "ron": 4196,
      "Ġdrops": 4197,
      "Ġshrimp": 4198,
      "nger": 4199,
      "Ġmedal": 4200,
      "Ġkitty": 4201,
      "âĤ¬âĢľ": 4202,
      "Ġthanks": 4203,
      "Ġraining": 4204,
      "Ġmen": 4205,
      "chanic": 4206,
      "Ġstom": 4207,
      "Ġminute": 4208,
      "Ġelevator": 4209,
      "Ġcelery": 4210,
      "Ġcord": 4211,
      "Ġonion": 4212,
      "Ġrhino": 4213,
      "Ġavailable": 4214,
      "ected": 4215,
      "Ġeraser": 4216,
      "Ġincl": 4217,
      "Ġpage": 4218,
      "Ġshort": 4219,
      "Ġyacht": 4220,
      "reeze": 4221,
      "Ġshouldn": 4222,
      "Ġfisher": 4223,
      "Ġperfectly": 4224,
      "Ġimagine": 4225,
      "Ġwool": 4226,
      "Ġmarry": 4227,
      "Ġwinter": 4228,
      "Ġbasketball": 4229,
      "Ġmechanic": 4230,
      "Ġdiary": 4231,
      "nam": 4232,
      "Ġbul": 4233,
      "Ġherb": 4234,
      "Ġflies": 4235,
      "Ġcomplete": 4236,
      "Ġrever": 4237,
      "Ġappl": 4238,
      "ĠAb": 4239,
      "Ġclosely": 4240,
      "aused": 4241,
      "Ġcardboard": 4242,
      "Ġinsect": 4243,
      "Ġmagaz": 4244,
      "Ġeagerly": 4245,
      "Ġplayer": 4246,
      "Ġjournal": 4247,
      "ĠSmith": 4248,
      "Ha": 4249,
      "enny": 4250,
      "Ġbaking": 4251,
      "Ġvend": 4252,
      "Ġquit": 4253,
      "Ġfurn": 4254,
      "Ġglove": 4255,
      "iture": 4256,
      "ĠClara": 4257,
      "Ġdisag": 4258,
      "Ġfurniture": 4259,
      "Ġstuffed": 4260,
      "Ġtub": 4261,
      "ĠJul": 4262,
      "Ġbreaks": 4263,
      "Ġimagination": 4264,
      "Ġbulb": 4265,
      "Ġtreasures": 4266,
      "ĠMiss": 4267,
      "Ġchurch": 4268,
      "gen": 4269,
      "ecause": 4270,
      "Ġcounter": 4271,
      "Ġwife": 4272,
      "Ġheaded": 4273,
      "Ġcooler": 4274,
      "any": 4275,
      "azz": 4276,
      "Ġpair": 4277,
      "Ġfreez": 4278,
      "Ġfrogs": 4279,
      "Ġtut": 4280,
      "quit": 4281,
      "Ġskull": 4282,
      "mand": 4283,
      "ories": 4284,
      "Ġpit": 4285,
      "Ġknob": 4286,
      "ween": 4287,
      "Ġfactor": 4288,
      "Ġswitch": 4289,
      "Ġfootball": 4290,
      "place": 4291,
      "Ġoffer": 4292,
      "ides": 4293,
      "Ġsunset": 4294,
      "Ġbetween": 4295,
      "Ġlie": 4296,
      "ĠInstead": 4297,
      "ifl": 4298,
      "aulifl": 4299,
      "Ġcheek": 4300,
      "Ġsym": 4301,
      "Ġswung": 4302,
      "Ġfactory": 4303,
      "Ġcups": 4304,
      "Ġmotorcycle": 4305,
      "Dad": 4306,
      "pe": 4307,
      "Ġchirp": 4308,
      "right": 4309,
      "Ġmos": 4310,
      "quito": 4311,
      "Ġflame": 4312,
      "Ġtwink": 4313,
      "..": 4314,
      "Ġshouting": 4315,
      "nament": 4316,
      "Ġpainter": 4317,
      "Ġgolf": 4318,
      "Ġpeach": 4319,
      "Ġornament": 4320,
      "kelet": 4321,
      "Ġblowing": 4322,
      "Ġhut": 4323,
      "Ġsung": 4324,
      "affe": 4325,
      "Ġhotel": 4326,
      "Ġseeing": 4327,
      "Ġcaulifl": 4328,
      "Ġfolder": 4329,
      "Ġvendor": 4330,
      "ccer": 4331,
      "lass": 4332,
      "Ġvideo": 4333,
      "Ġmixer": 4334,
      "izes": 4335,
      "bol": 4336,
      "Ġthrows": 4337,
      "Ġpirates": 4338,
      "Ġcreated": 4339,
      "orses": 4340,
      "Ġheads": 4341,
      "Ġoil": 4342,
      "Ġkay": 4343,
      "ĠMay": 4344,
      "Ġframe": 4345,
      "Ġmosquito": 4346,
      "angu": 4347,
      "mm": 4348,
      "Ġcushion": 4349,
      "Ġsoccer": 4350,
      "Ġfisherman": 4351,
      "Ġcoal": 4352,
      "zzy": 4353,
      "Ġsymbol": 4354,
      "Ġhorses": 4355,
      "Ġcable": 4356,
      "ceros": 4357,
      "Ġpopped": 4358,
      "Ġlangu": 4359,
      "Ġwipe": 4360,
      "ab": 4361,
      "ĠSte": 4362,
      "Ġpine": 4363,
      "Ġattention": 4364,
      "Ġskelet": 4365,
      "Ġbattery": 4366,
      "Ġpowder": 4367,
      "Ġcauliflower": 4368,
      "Ġstud": 4369,
      "Ġlaser": 4370,
      "ĠGod": 4371,
      "render": 4372,
      "Ġforgotten": 4373,
      "Ġweather": 4374,
      "rod": 4375,
      "Ġlives": 4376,
      "Ġmop": 4377,
      "Ġcelebrated": 4378,
      "Ġfishing": 4379,
      "Ġax": 4380,
      "Ġrot": 4381,
      "Ġsince": 4382,
      "Ġtrail": 4383,
      "ĠIÃ¢": 4384,
      "elcome": 4385,
      "Ġmaze": 4386,
      "aws": 4387,
      "ef": 4388,
      "Ġphoto": 4389,
      "ites": 4390,
      "Ġyoga": 4391,
      "Ġsurround": 4392,
      "Ġwaving": 4393,
      "Ġslept": 4394,
      "Ġsneak": 4395,
      "Ġanch": 4396,
      "Ġdear": 4397,
      "unately": 4398,
      "Ġgiraffe": 4399,
      "Ġintrod": 4400,
      "Ġrhinoceros": 4401,
      "Ġpoke": 4402,
      "Ġswamp": 4403,
      "ple": 4404,
      "Ġflea": 4405,
      "Ġpoints": 4406,
      "ĠRosie": 4407,
      "Ġitch": 4408,
      "Ġpoint": 4409,
      "Ġglowing": 4410,
      "ĠitÃ¢": 4411,
      "Ġfireplace": 4412,
      "Ġbreeze": 4413,
      "ney": 4414,
      "ĠTrue": 4415,
      "lasses": 4416,
      "Ġsub": 4417,
      "Ġvet": 4418,
      "Ġsunglasses": 4419,
      "Your": 4420,
      "Ġkingdom": 4421,
      "Ġmemories": 4422,
      "Ġtutor": 4423,
      "Ġstreng": 4424,
      "Ġtuna": 4425,
      "Ġiron": 4426,
      "Max": 4427,
      "Ġreve": 4428,
      "Ġvest": 4429,
      "ĠTina": 4430,
      "spap": 4431,
      "Ġpetals": 4432,
      "Ġfog": 4433,
      "Ġmistakes": 4434,
      "Ġaxe": 4435,
      "Ġcomplain": 4436,
      "Ġbaseball": 4437,
      "Ġdancer": 4438,
      "Ġchickens": 4439,
      "Ġparent": 4440,
      "Ġig": 4441,
      "hero": 4442,
      "Ġnewspap": 4443,
      "Ġstrength": 4444,
      "Ġgreedy": 4445,
      "Ġceiling": 4446,
      "ckey": 4447,
      "Ġsquirrels": 4448,
      "Ġhockey": 4449,
      "Ġigloo": 4450,
      "Ġsir": 4451,
      "Ġgrin": 4452,
      "chie": 4453,
      "Ġanchor": 4454,
      "Ġskeleton": 4455,
      "rosc": 4456,
      "Ġsniffed": 4457,
      "Ġgrocer": 4458,
      "Ġsuperhero": 4459,
      "Ġargue": 4460,
      "Ġnapkin": 4461,
      "Ġgolden": 4462,
      "ues": 4463,
      "Ġhanging": 4464,
      "Ġtrave": 4465,
      "Ġmusician": 4466,
      "medi": 4467,
      "Ġskirt": 4468,
      "roscope": 4469,
      "Ġstaff": 4470,
      "Ġtemple": 4471,
      "Ġunif": 4472,
      "Ġagree": 4473,
      "Ġsque": 4474,
      "Ġbury": 4475,
      "mediately": 4476,
      "Ġtheater": 4477,
      "Ġdiscu": 4478,
      "Ġuniform": 4479,
      "Ġeaten": 4480,
      "Ġslipper": 4481,
      "Ġwelcomed": 4482,
      "Ġseas": 4483,
      "Ġshoulder": 4484,
      "Ġzipper": 4485,
      "Ġquietly": 4486,
      "Ġmeeting": 4487,
      "ssible": 4488,
      "Ġlime": 4489,
      "Ġinvest": 4490,
      "istol": 4491,
      "Ġmicroscope": 4492,
      "sing": 4493,
      "oh": 4494,
      "Ġpinch": 4495,
      "chair": 4496,
      "Ġflapped": 4497,
      "Ġslippery": 4498,
      "Ġaccepted": 4499,
      "Ġfought": 4500,
      "Ġinvestig": 4501,
      "erc": 4502,
      "Ġpistol": 4503,
      "Ġdoors": 4504,
      "Ġminer": 4505,
      "reek": 4506,
      "Ġradish": 4507,
      "Ġplastic": 4508,
      "Ġthrowing": 4509,
      "Ġcalls": 4510,
      "Ġbouncing": 4511,
      "tress": 4512,
      "Ġmattress": 4513,
      "men": 4514,
      "Ġsurrender": 4515,
      "Ġcob": 4516,
      "aces": 4517,
      "house": 4518,
      "Ġpear": 4519,
      "Ġcreek": 4520,
      "Ġvroom": 4521,
      "Ġkayak": 4522,
      "tain": 4523,
      "Ġmoves": 4524,
      "Ġsticky": 4525,
      "Qu": 4526,
      "Ġlawy": 4527,
      "Ġnovel": 4528,
      "Wait": 4529,
      "alley": 4530,
      "Ġcub": 4531,
      "Ġavocado": 4532,
      "Ġcared": 4533,
      "Ġsuff": 4534,
      "Ġfreezer": 4535,
      "Ġlotion": 4536,
      "aud": 4537,
      "case": 4538,
      "ison": 4539,
      "ĠFirst": 4540,
      "ler": 4541,
      "te": 4542,
      "was": 4543,
      "Ġfauc": 4544,
      "Ġarmchair": 4545,
      "Ġwriting": 4546,
      "inked": 4547,
      "Ġreef": 4548,
      "Ġmakeup": 4549,
      "Timmy": 4550,
      "Ġmystery": 4551,
      "Ġvalley": 4552,
      "web": 4553,
      "Ġtug": 4554,
      "Ġinvestigate": 4555,
      "Ġnews": 4556,
      "Ġsailing": 4557,
      "Ġcherries": 4558,
      "Ġregret": 4559,
      "Ġcrib": 4560,
      "llie": 4561,
      "washer": 4562,
      "imney": 4563,
      "Ġexerc": 4564,
      "Ġoyster": 4565,
      "Ġfaucet": 4566,
      "Ġagre": 4567,
      "Ġsplashing": 4568,
      "Ġticket": 4569,
      "Ġcollected": 4570,
      "Ġworth": 4571,
      "Ġchimney": 4572,
      "Ġtoil": 4573,
      "Ġpresents": 4574,
      "Ġdishwasher": 4575,
      "Ġmagazine": 4576,
      "Ġhappens": 4577,
      "Ġsprayed": 4578,
      "Ġwags": 4579,
      "ÅĵItÃ¢": 4580,
      "Ġprevent": 4581,
      "Ġcobweb": 4582,
      "Ġquack": 4583,
      "Ġveil": 4584,
      "Ġcastles": 4585,
      "Ġentered": 4586,
      "Ġtear": 4587,
      "Ġshrugged": 4588,
      "ĠFreddy": 4589,
      "Ġhar": 4590,
      "Ġpassport": 4591,
      "Ġapplaud": 4592,
      "Ġchess": 4593,
      "Ġseparate": 4594,
      "Ġscolded": 4595,
      "Thanks": 4596,
      "Ġweigh": 4597,
      "Ġtoilet": 4598,
      "Ġalarm": 4599,
      "ives": 4600,
      "ĠSee": 4601,
      "Ġblankets": 4602,
      "Ġrake": 4603,
      "Ġignored": 4604,
      "Ġtucked": 4605,
      "Ġlawyer": 4606,
      "Ġchoice": 4607,
      "ived": 4608,
      "Ġhopes": 4609,
      "Ġattach": 4610,
      "Ġcoats": 4611,
      "sit": 4612,
      "Ġcandles": 4613,
      "Ġfollows": 4614,
      "Ġkisses": 4615,
      "Ġappro": 4616,
      "Ġclassroom": 4617,
      "ring": 4618,
      "Ġpuddles": 4619,
      "Ġeasily": 4620,
      "ĠMe": 4621,
      "Ġapart": 4622,
      "ety": 4623,
      "Ġdisappear": 4624,
      "ĠSad": 4625,
      "Ġbeef": 4626,
      "Ġchairs": 4627,
      "Ġburned": 4628,
      "Ġbother": 4629,
      "ĠMilly": 4630,
      "Ġletting": 4631,
      "Ġstraight": 4632,
      "eterin": 4633,
      "eterinarian": 4634,
      "Ġyield": 4635,
      "Ġward": 4636,
      "Ġdressed": 4637,
      "Ġcane": 4638,
      "Ġtrusted": 4639,
      "Ġlanguage": 4640,
      "Ġsizes": 4641,
      "Ġveterinarian": 4642,
      "Ġraz": 4643,
      "Ġteleph": 4644,
      "raged": 4645,
      "Ġcaring": 4646,
      "Ġplanes": 4647,
      "Ġwardrobe": 4648,
      "Ġjewelry": 4649,
      "atched": 4650,
      "Ġblinked": 4651,
      "Sam": 4652,
      "iday": 4653,
      "Ġshower": 4654,
      "Ġrise": 4655,
      "Ġmissile": 4656,
      "Ġkeeping": 4657,
      "Ġlawn": 4658,
      "Ġrequ": 4659,
      "Ġstable": 4660,
      "Ġcabinet": 4661,
      "Ġcrossed": 4662,
      "Ġoak": 4663,
      "Ġble": 4664,
      "ĠHowever": 4665,
      "Ġbookshe": 4666,
      "vision": 4667,
      "Ġstro": 4668,
      "Ġtelephone": 4669,
      "Ġnewspaper": 4670,
      "mend": 4671,
      "Ġclaws": 4672,
      "Ġrooms": 4673,
      "Ġwhisper": 4674,
      "Ġsigh": 4675,
      "Ġpuzzles": 4676,
      "Ġaut": 4677,
      "Ġtrade": 4678,
      "Ġincre": 4679,
      "ival": 4680,
      "Ġcell": 4681,
      "Ġtornado": 4682,
      "Ġscratch": 4683,
      "una": 4684,
      "anges": 4685,
      "ĠRuby": 4686,
      "Ġbookcase": 4687,
      "Ġinf": 4688,
      "ampoo": 4689,
      "Ġblueberries": 4690,
      "Ġsnap": 4691,
      "Ġamazement": 4692,
      "Ġperfu": 4693,
      "ction": 4694,
      "ommend": 4695,
      "Ġsqueezed": 4696,
      "Ġbookshelf": 4697,
      "Ġrecommend": 4698,
      "Ġopera": 4699,
      "Ġsubway": 4700,
      "Ġpra": 4701,
      "Ġgym": 4702,
      "Ġdelay": 4703,
      "Ġgrill": 4704,
      "ĠHelp": 4705,
      "Ġrazor": 4706,
      "Ġblouse": 4707,
      "Ġrequest": 4708,
      "Ġcrawling": 4709,
      "Ġpur": 4710,
      "Ġpoked": 4711,
      "âĤ¬.": 4712,
      "Ġtelevision": 4713,
      "Ġbill": 4714,
      "Ġhol": 4715,
      "ggy": 4716,
      "Ġfollowing": 4717,
      "omes": 4718,
      "iction": 4719,
      "Ġshampoo": 4720,
      "Ġfile": 4721,
      "Ġlicks": 4722,
      "Sara": 4723,
      "Ġspear": 4724,
      "Ġsqueeze": 4725,
      "Ġholiday": 4726,
      "Because": 4727,
      "And": 4728,
      "Ġexperience": 4729,
      "Ġlumber": 4730,
      "ĠIs": 4731,
      "Ġimprove": 4732,
      "Ġmint": 4733,
      "Ġperfume": 4734,
      "Ġserve": 4735,
      "Ġdemand": 4736,
      "Ġsteam": 4737,
      "Ġcliff": 4738,
      "Ġringing": 4739,
      "Ġcrow": 4740,
      "fortunately": 4741,
      "ictionary": 4742,
      "ah": 4743,
      "bbie": 4744,
      "Ġribbon": 4745,
      "Ġimmediately": 4746,
      "Ġhelper": 4747,
      "ĠFo": 4748,
      "Ġmuffin": 4749,
      "Ġfest": 4750,
      "Ġgrowled": 4751,
      "Ġisn": 4752,
      "Ġbegged": 4753,
      "Ġdictionary": 4754,
      "Ġmatches": 4755,
      "Ġshrink": 4756,
      "Ġwaste": 4757,
      "Ġblood": 4758,
      "Ġbirdc": 4759,
      "ĠSnowy": 4760,
      "Ġprop": 4761,
      "Ġideas": 4762,
      "Ġwarmth": 4763,
      "ĠKatie": 4764,
      "ib": 4765,
      "Ġmustache": 4766,
      "Ġsneeze": 4767,
      "ores": 4768,
      "Ġinvite": 4769,
      "ĠPeople": 4770,
      "hic": 4771,
      "Ġgear": 4772,
      "Ġbirdcage": 4773,
      "Ġvehic": 4774,
      "Ġfuel": 4775,
      "ups": 4776,
      "Ġalright": 4777,
      "ĠLuck": 4778,
      "alend": 4779,
      "Ġrabbits": 4780,
      "asis": 4781,
      "Ġcalend": 4782,
      "Ġweep": 4783,
      "Ġyucky": 4784,
      "Ġflutter": 4785,
      "Ġinstr": 4786,
      "ĠLuckily": 4787,
      "Ġfallen": 4788,
      "Ġmarried": 4789,
      "Ġberry": 4790,
      "ĠEach": 4791,
      "lier": 4792,
      "Ġrail": 4793,
      "Ġrow": 4794,
      "Ġpastry": 4795,
      "Ġrefre": 4796,
      "ucture": 4797,
      "Did": 4798,
      "Ġworms": 4799,
      "Ġstructure": 4800,
      "Ġlaught": 4801,
      "ĠLiz": 4802,
      "Ġsurprises": 4803,
      "Ġbravely": 4804,
      "Ġbelow": 4805,
      "Ġcalendar": 4806,
      "Ġoasis": 4807,
      "Ġwandered": 4808,
      "Ġwigg": 4809,
      "Ġkneel": 4810,
      "ising": 4811,
      "Ġdire": 4812,
      "Ġunderstanding": 4813,
      "Ġhurting": 4814,
      "Ġlaughter": 4815,
      "omeday": 4816,
      "Ġdrain": 4817,
      "Ġpages": 4818,
      "Ġfloat": 4819,
      "Ġhearts": 4820,
      "Ġenter": 4821,
      "Ok": 4822,
      "ĠOllie": 4823,
      "Ġairpl": 4824,
      "inky": 4825,
      "Ġitem": 4826,
      "ĠKing": 4827,
      "omob": 4828,
      "Ġharb": 4829,
      "Ġreaches": 4830,
      "Ġapron": 4831,
      "Ġsafety": 4832,
      "Is": 4833,
      "Ġcrash": 4834,
      "Ġautomob": 4835,
      "Ġbathe": 4836,
      "Ġburied": 4837,
      "Ġjunk": 4838,
      "ÅĵNo": 4839,
      "Ġbuckle": 4840,
      "Ġadmir": 4841,
      "Ġroot": 4842,
      "Ġcaptain": 4843,
      "Ġstrawberries": 4844,
      "Ġmyself": 4845,
      "achel": 4846,
      "Ġrelaxed": 4847,
      "Ġsandcastle": 4848,
      "oral": 4849,
      "Ġignore": 4850,
      "Ġskills": 4851,
      "Ġplates": 4852,
      "Welcome": 4853,
      "'ve": 4854,
      "Ġwhip": 4855,
      "ĠWho": 4856,
      "Ġspade": 4857,
      "Ġmoments": 4858,
      "Ġreverse": 4859,
      "htray": 4860,
      "ĠJoy": 4861,
      "ĠSteve": 4862,
      "icing": 4863,
      "Ġquiz": 4864,
      "ĠRachel": 4865,
      "Ġashtray": 4866,
      "Ġfestival": 4867,
      "Ġbeamed": 4868,
      "ĠCo": 4869,
      "'.": 4870,
      "Ġsnapped": 4871,
      "riger": 4872,
      "Ġsomeday": 4873,
      "cakes": 4874,
      "Ġrefriger": 4875,
      "Ġraise": 4876,
      "ĠEveryday": 4877,
      "Ġreceived": 4878,
      "Yuck": 4879,
      "Ġrefrigerator": 4880,
      "Ġearlier": 4881,
      "Ġtong": 4882,
      "ari": 4883,
      "Ġlic": 4884,
      "Ġweap": 4885,
      "Ġvac": 4886,
      "ĠBetsy": 4887,
      "Ġteaching": 4888,
      "Ġmass": 4889,
      "Ġharbor": 4890,
      "Ġmodel": 4891,
      "ĠIts": 4892,
      "Ġsparkling": 4893,
      "Ġspots": 4894,
      "aped": 4895,
      "Ġinsisted": 4896,
      "Ġsaving": 4897,
      "Ġvanished": 4898,
      "Ġsocks": 4899,
      "Ġbumped": 4900,
      "ĠBuzz": 4901,
      "Ġthumb": 4902,
      "anna": 4903,
      "Ġdried": 4904,
      "Ġsupply": 4905,
      "ĠPoppy": 4906,
      "ission": 4907,
      "Ġblackboard": 4908,
      "igail": 4909,
      "Ġprepare": 4910,
      "Ġjail": 4911,
      "Ġjewels": 4912,
      "ĠPenny": 4913,
      "Ġspending": 4914,
      "xy": 4915,
      "Ġbalan": 4916,
      "Ġscattered": 4917,
      "Ġtoes": 4918,
      "Ġscooped": 4919,
      "Ġsettled": 4920,
      "Ġpermission": 4921,
      "ĠV": 4922,
      "Ġsparkle": 4923,
      "Ġknown": 4924,
      "ĠFrank": 4925,
      "ctly": 4926,
      "Ġbreathe": 4927,
      "Ġboot": 4928,
      "nce": 4929,
      "Ġyawned": 4930,
      "Ġres": 4931,
      "amber": 4932,
      "Ġachie": 4933,
      "Ġdestroyed": 4934,
      "Ġbathrobe": 4935,
      "ĠAbigail": 4936,
      "Ġtease": 4937,
      "Ġremain": 4938,
      "Ġhardly": 4939,
      "Ġencouraged": 4940,
      "Ġreplace": 4941,
      "Ġwaffle": 4942,
      "antly": 4943,
      "Ġpride": 4944,
      "Ġlemonade": 4945,
      "Ġdare": 4946,
      "Ġhanger": 4947,
      "ĠHave": 4948,
      "Ġsits": 4949,
      "Ġpulling": 4950,
      "Ġdecorations": 4951,
      "sters": 4952,
      "ops": 4953,
      "Ġremove": 4954,
      "Ġcuddled": 4955,
      "Ġhate": 4956,
      "Ġdaisy": 4957,
      "ĠDav": 4958,
      "Ġlicense": 4959,
      "uch": 4960,
      "Ġbeans": 4961,
      "Ġsimp": 4962,
      "Ġport": 4963,
      "Ġrespons": 4964,
      "Ġpraised": 4965,
      "reat": 4966,
      "Ġchirping": 4967,
      "Ġhits": 4968,
      "ents": 4969,
      "Ġequ": 4970,
      "asp": 4971,
      "Ġfastest": 4972,
      "Ġsuffer": 4973,
      "xture": 4974,
      "Ġbuzzing": 4975,
      "Ġpatiently": 4976,
      "Ġdresses": 4977,
      "Ġmention": 4978,
      "ĠDavid": 4979,
      "Ġbleed": 4980,
      "sity": 4981,
      "Ġrhy": 4982,
      "Ġautomobile": 4983,
      "nies": 4984,
      "Ġwiz": 4985,
      "Ġappreciate": 4986,
      "Ġpoppy": 4987,
      "Ġdestination": 4988,
      "Ġtaller": 4989,
      "Ġmall": 4990,
      "osed": 4991,
      "Ġhomes": 4992,
      "Ġnation": 4993,
      "ium": 4994,
      "Ġdigg": 4995,
      "Ġflav": 4996,
      "Ġclimbs": 4997,
      "Ġguy": 4998,
      "Ġwashing": 4999,
      "Ġpalm": 5000,
      "Ġglo": 5001,
      "Ġshot": 5002,
      "Ġlabel": 5003,
      "Ġbelieved": 5004,
      "Ġdigging": 5005,
      "Ġapproached": 5006,
      "Ġhesit": 5007,
      "fied": 5008,
      "Ġnone": 5009,
      "Ġtore": 5010,
      "ĠMat": 5011,
      "Mmm": 5012,
      "Ġdeeper": 5013,
      "Ġwine": 5014,
      "Ġinfant": 5015,
      "ude": 5016,
      "Ġrestore": 5017,
      "Ġscore": 5018,
      "Ġhers": 5019,
      "Ġmitten": 5020,
      "Ġchamber": 5021,
      "Ġsausage": 5022,
      "rm": 5023,
      "Ġstruggling": 5024,
      "Ġheat": 5025,
      "Ġtongue": 5026,
      "Ġhills": 5027,
      "Ġhurric": 5028,
      "Ġpunish": 5029,
      "Ġpillows": 5030,
      "Ġbillboard": 5031,
      "Ġsneezed": 5032,
      "Ġsport": 5033,
      "Ġwizard": 5034,
      "Ġupstairs": 5035,
      "Ġthrilled": 5036,
      "Ġprovide": 5037,
      "Ġbrain": 5038,
      "Ġawe": 5039,
      "Ġdiscuss": 5040,
      "Ġpanic": 5041,
      "Ġwarning": 5042,
      "Ġtwisted": 5043,
      "Ġglowed": 5044,
      "Ġuniverse": 5045,
      "Ġfiref": 5046,
      "Ġtherm": 5047,
      "Ġvacation": 5048,
      "Ġworse": 5049,
      "Ġcrunch": 5050,
      "Ġpoison": 5051,
      "Ġshed": 5052,
      "Ġsolved": 5053,
      "Ġparts": 5054,
      "osity": 5055,
      "ĠSpike": 5056,
      "bey": 5057,
      "Ġevent": 5058,
      "Ġsetting": 5059,
      "allen": 5060,
      "Ġtour": 5061,
      "Ġremained": 5062,
      "Ġairplane": 5063,
      "Ġhurricane": 5064,
      "Ġthermomet": 5065,
      "Ġplays": 5066,
      "Ġexamine": 5067,
      "Ġsparkles": 5068,
      "Ġshooting": 5069,
      "Ġinvit": 5070,
      "Ġneighborhood": 5071,
      "Ġsty": 5072,
      "Ġchores": 5073,
      "Ġoranges": 5074,
      "Ġfloated": 5075,
      "Ġranch": 5076,
      "Ġchallen": 5077,
      "thm": 5078,
      "Ġweeks": 5079,
      "Ġleak": 5080,
      "Ġuniversity": 5081,
      "ging": 5082,
      "shing": 5083,
      "Ġpaints": 5084,
      "Ġthermometer": 5085,
      "Ġbites": 5086,
      "Ġrepeat": 5087,
      "Ġbang": 5088,
      "adium": 5089,
      "Ġfloating": 5090,
      "Ġfixing": 5091,
      "Ġmeasured": 5092,
      "Ġstadium": 5093,
      "Ġgrinned": 5094,
      "!'": 5095,
      "These": 5096,
      "Ġduring": 5097,
      "!\",": 5098,
      "Ġsurrounded": 5099,
      "Ġsupposed": 5100,
      "aspoon": 5101,
      "ĠCat": 5102,
      "Ġconf": 5103,
      "Ġrhythm": 5104,
      "Ġmassage": 5105,
      "Ġbrings": 5106,
      "Ġpaused": 5107,
      "Ġcherry": 5108,
      "Ġgifts": 5109,
      "Ġfut": 5110,
      "Ġsprinkles": 5111,
      "Ġfasc": 5112,
      "Ġfuture": 5113,
      "Ġmemory": 5114,
      "ĠUnfortunately": 5115,
      "ÅĵIÃ¢": 5116,
      "Ġteaspoon": 5117,
      "Ġgrey": 5118,
      "rise": 5119,
      "Ġcollection": 5120,
      "Ġsigns": 5121,
      "Ġmarbles": 5122,
      "bbles": 5123,
      "Ġjazz": 5124,
      "Ġstomach": 5125,
      "Would": 5126,
      "emember": 5127,
      "ĠGood": 5128,
      "do": 5129,
      "Ġgust": 5130,
      "ĠZoe": 5131,
      "Ġwisdom": 5132,
      "Ġactually": 5133,
      "Ġflood": 5134,
      "Ġdiscovery": 5135,
      "Ġinclud": 5136,
      "Ġsew": 5137,
      "Ġvehicle": 5138,
      "Ġtide": 5139,
      "Ġlily": 5140,
      "Ġgirls": 5141,
      "Ġsunrise": 5142,
      "ishing": 5143,
      "Sp": 5144,
      "ĠBeth": 5145,
      "vet": 5146,
      "ÅĵThatÃ¢": 5147,
      "Ġmeowed": 5148,
      "ls": 5149,
      "Ġelephants": 5150,
      "ĠChr": 5151,
      "Ġurge": 5152,
      "Ġexercise": 5153,
      "Ġmailman": 5154,
      "umble": 5155,
      "Ġlugg": 5156,
      "Ġdecision": 5157,
      "Ġrush": 5158,
      "Ġchewed": 5159,
      "ero": 5160,
      "Ġweapon": 5161,
      "Ġstrang": 5162,
      "Ġobserve": 5163,
      "Ġluggage": 5164,
      "Ġunite": 5165,
      "ĠRa": 5166,
      "Ġcartoons": 5167,
      "Ġsore": 5168,
      "Ġfascin": 5169,
      "Ġtomatoes": 5170,
      "iers": 5171,
      "Ġscur": 5172,
      "Ġpossible": 5173,
      "Ġtoe": 5174,
      "allow": 5175,
      "cles": 5176,
      "Ġsunlight": 5177,
      "ĠJe": 5178,
      "ities": 5179,
      "Ġfolded": 5180,
      "Ġcurled": 5181,
      "Ġchirped": 5182,
      "Ġrust": 5183,
      "Ġmelted": 5184,
      "Ġspill": 5185,
      "Ġcakes": 5186,
      "ĠJan": 5187,
      "uing": 5188,
      "ĠQu": 5189,
      "Ġsip": 5190,
      "Ġcollecting": 5191,
      "Ġx": 5192,
      "Ġgrape": 5193,
      "son": 5194,
      "ĠSomeone": 5195,
      "Ġmineral": 5196,
      "Ġdifference": 5197,
      "Ġproblems": 5198,
      "Ġbak": 5199,
      "ĠJam": 5200,
      "Ġtracks": 5201,
      "Ġjogging": 5202,
      "ĠRemy": 5203,
      "Ġwherever": 5204,
      "Sh": 5205,
      "Ġmountains": 5206,
      "ipment": 5207,
      "Ġbes": 5208,
      "ĠSpark": 5209,
      "Ready": 5210,
      "Ġsliding": 5211,
      "Ġmanage": 5212,
      "Ġequipment": 5213,
      "etch": 5214,
      "Ġlaid": 5215,
      "Not": 5216,
      "Ġlick": 5217,
      "Ġadmiring": 5218,
      "Ġwatered": 5219,
      "cious": 5220,
      "Ġsatis": 5221,
      "Ġcontain": 5222,
      "Ġoper": 5223,
      "Ġbricks": 5224,
      "ĠFro": 5225,
      "oved": 5226,
      "Ġtwigs": 5227,
      "rr": 5228,
      "Ġpatterns": 5229,
      "Ġkindly": 5230,
      "Ġpetted": 5231,
      "Ġskipping": 5232,
      "Ġpotatoes": 5233,
      "Ġseats": 5234,
      "bers": 5235,
      "Ġsoldiers": 5236,
      "ĠNina": 5237,
      "eed": 5238,
      "Ġgloves": 5239,
      "Ġspaces": 5240,
      "zag": 5241,
      "ĠSund": 5242,
      "joyed": 5243,
      "Ġreceive": 5244,
      "Ġkeeper": 5245,
      "Ġcopper": 5246,
      "ĠLuna": 5247,
      "Ġemer": 5248,
      "Ġslice": 5249,
      "Ġlets": 5250,
      "ĠSunday": 5251,
      "Ġgain": 5252,
      "Ġcontinue": 5253,
      "Ġordered": 5254,
      "Ġstrangers": 5255,
      "ĠThom": 5256,
      "walk": 5257,
      "Ġoverjoyed": 5258,
      "Ġwatches": 5259,
      "Ġgotten": 5260,
      "Ġpigs": 5261,
      "Ġzipped": 5262,
      "mother": 5263,
      "Ġlands": 5264,
      "Ġwhistling": 5265,
      "Ġgaz": 5266,
      "Ġbeside": 5267,
      "ÅĵThank": 5268,
      "Ġsafari": 5269,
      "Ġbeg": 5270,
      "Ġprayed": 5271,
      "ĠAd": 5272,
      "Ġpeered": 5273,
      "Ġnetwork": 5274,
      "bbled": 5275,
      "Ġspit": 5276,
      "Ġeff": 5277,
      "Ġinvitation": 5278,
      "Ġmarching": 5279,
      "ĠMoral": 5280,
      "Ġours": 5281,
      "ĠNot": 5282,
      "ases": 5283,
      "Ġglitter": 5284,
      "Ġwooden": 5285,
      "Ġearthqu": 5286,
      "ĠThomas": 5287,
      "Ġsidewalk": 5288,
      "Ġeagle": 5289,
      "igzag": 5290,
      "Ġdoggy": 5291,
      "Ġdrinks": 5292,
      "Ġgrocery": 5293,
      "irp": 5294,
      "Ġweight": 5295,
      "Ġnavy": 5296,
      "Ġacorns": 5297,
      "Ġattached": 5298,
      "ĠJulie": 5299,
      "ĠJosh": 5300,
      "Ġraised": 5301,
      "Ġdisagreed": 5302,
      "Ġweren": 5303,
      "Yum": 5304,
      "ĠChl": 5305,
      "ĠLetÃ¢": 5306,
      "ĠSuzy": 5307,
      "Ġbeat": 5308,
      "Ġcompany": 5309,
      "ĠUncle": 5310,
      "Ġmister": 5311,
      "Ġburning": 5312,
      "ĠSunny": 5313,
      "fy": 5314,
      "Ġonwards": 5315,
      "hest": 5316,
      "\",": 5317,
      "Ġwre": 5318,
      "Ġhappiest": 5319,
      "Ġracing": 5320,
      "Ġbrid": 5321,
      "Ġcrashed": 5322,
      "Ġspoons": 5323,
      "Ġfed": 5324,
      "ĠChloe": 5325,
      "Ġcrunchy": 5326,
      "ĠKay": 5327,
      "ĠSharing": 5328,
      "Ġpeanuts": 5329,
      "Ġwhistled": 5330,
      "Ġprice": 5331,
      "ĠSure": 5332,
      "seek": 5333,
      "Ġmeow": 5334,
      "Ġhurried": 5335,
      "Ġhist": 5336,
      "Ġofficer": 5337,
      "Ouch": 5338,
      "Ġbrick": 5339,
      "Ġaccom": 5340,
      "Ġtremb": 5341,
      "Ġrefreshed": 5342,
      "Ġpies": 5343,
      "Ġremem": 5344,
      "Ġflap": 5345,
      "Ġworks": 5346,
      "nie": 5347,
      "Ġclearing": 5348,
      "Ġoperation": 5349,
      "Ġprepared": 5350,
      "Ġbowed": 5351,
      "Ġscratched": 5352,
      "Ġremembers": 5353,
      "Ġhistory": 5354,
      "Ġexa": 5355,
      "Will": 5356,
      "aded": 5357,
      "Ġlips": 5358,
      "amb": 5359,
      "Ġfireworks": 5360,
      "Ġprune": 5361,
      "ÅĵWe": 5362,
      "Really": 5363,
      "Ġescaped": 5364,
      "Ġdinosaurs": 5365,
      "Ġmenu": 5366,
      "Ġbridges": 5367,
      "Ġtalent": 5368,
      "Ġplanted": 5369,
      "ĠAm": 5370,
      "ĠNut": 5371,
      "Ġbuildings": 5372,
      "Ġrevealed": 5373,
      "Ġeasier": 5374,
      "Ġbye": 5375,
      "Ġturning": 5376,
      "ĠPr": 5377,
      "Ġcomfy": 5378,
      "Ġscreams": 5379,
      "Ġolive": 5380,
      "Ġbrand": 5381,
      "Ġhated": 5382,
      "Ġchat": 5383,
      "Ġselling": 5384,
      "Ġsnowball": 5385,
      "die": 5386,
      "Ġrecognized": 5387,
      "ĠAn": 5388,
      "Ġwarn": 5389,
      "Ġaccompl": 5390,
      "Ġcrept": 5391,
      "Ġprecious": 5392,
      "Ġlandsc": 5393,
      "ĠSadly": 5394,
      "Ġstrip": 5395,
      "Ġmuddy": 5396,
      "Ġpadd": 5397,
      "Ġwid": 5398,
      "ĠBy": 5399,
      "Ġdrinking": 5400,
      "ĠJamie": 5401,
      "Ġsings": 5402,
      "xygen": 5403,
      "Ġpupp": 5404,
      "Ġbeds": 5405,
      "ĠChirp": 5406,
      "ecture": 5407,
      "Ġsettle": 5408,
      "Ġearthquake": 5409,
      "Ġsimple": 5410,
      "cc": 5411,
      "Ġeffort": 5412,
      "Ġreminder": 5413,
      "Ġspaceship": 5414,
      "Ġmeasuring": 5415,
      "Ġslip": 5416,
      "Ġperched": 5417,
      "Ġlecture": 5418,
      "Ġbones": 5419,
      "Ġserved": 5420,
      "ĠCla": 5421,
      "Ġappear": 5422,
      "Ġwonders": 5423,
      "Ġshadows": 5424,
      "Ġwaits": 5425,
      "Ġvoices": 5426,
      "ÅĵCan": 5427,
      "ĠOl": 5428,
      "Ġcuddle": 5429,
      "Ġeveryday": 5430,
      "Ġpedal": 5431,
      "Ġpitch": 5432,
      "Ġcomforted": 5433,
      "Ġagreement": 5434,
      "Ġresponsible": 5435,
      "Ġcircus": 5436,
      "Ġrained": 5437,
      "ĠLu": 5438,
      "Ġvel": 5439,
      "Ġobey": 5440,
      "ffic": 5441,
      "Ġvict": 5442,
      "Ġtip": 5443,
      "Ġsoared": 5444,
      "Ġallow": 5445,
      "Ġanytime": 5446,
      "Ġtrapped": 5447,
      "Ġcal": 5448,
      "Ġwhatever": 5449,
      "Ġzigzag": 5450,
      "Ġtastes": 5451,
      "Ġapologize": 5452,
      "Ġlandscape": 5453,
      "Ġcutting": 5454,
      "Ġsucceeded": 5455,
      "Ġshopping": 5456,
      "ĠMad": 5457,
      "Ġrang": 5458,
      "Ġpets": 5459,
      "Ġsecrets": 5460,
      "Ġvillag": 5461,
      "ĠPip": 5462,
      "anny": 5463,
      "Ġvelvet": 5464,
      "Ġprinter": 5465,
      "Ġdisturbed": 5466,
      "Ġwaist": 5467,
      "Ġitems": 5468,
      "Ġswims": 5469,
      "Ġbun": 5470,
      "Ġtraffic": 5471,
      "Ġpracticing": 5472,
      "Ġsteel": 5473,
      "Ġbringing": 5474,
      "Ġoats": 5475,
      "ĠAnne": 5476,
      "Ġexactly": 5477,
      "Ġsisters": 5478,
      "To": 5479,
      "Ġrested": 5480,
      "Ġvisiting": 5481,
      "ĠRob": 5482,
      "ĠHanna": 5483,
      "Ġactiv": 5484,
      "Ġcostumes": 5485,
      "Ġscoop": 5486,
      "Ġanswers": 5487,
      "izing": 5488,
      "Ġolives": 5489,
      "ien": 5490,
      "mble": 5491,
      "Ġbrushed": 5492,
      "Ġstyle": 5493,
      "Ġmouths": 5494,
      "ĠBig": 5495,
      "ĠKe": 5496,
      "Ġsoak": 5497,
      "Ġcuriosity": 5498,
      "Ġbene": 5499,
      "ĠFor": 5500,
      "ishes": 5501,
      "Ġoutdo": 5502,
      "neath": 5503,
      "Ġbreaking": 5504,
      "Ġfashion": 5505,
      "Ġrele": 5506,
      "Ġowned": 5507,
      "Ġladyb": 5508,
      "Ġencourage": 5509,
      "ÅĵDon": 5510,
      "ĠCoco": 5511,
      "Ġknelt": 5512,
      "Ġfascinated": 5513,
      "Ġleather": 5514,
      "mare": 5515,
      "Ġimage": 5516,
      "iggy": 5517,
      "ĠClaire": 5518,
      "Ġvillagers": 5519,
      "oming": 5520,
      "Ġnails": 5521,
      "Ġbeneath": 5522,
      "icorn": 5523,
      "Ġunderground": 5524,
      "Ġwaffles": 5525,
      "Ġunicorn": 5526,
      "Ġsadness": 5527,
      "ĠLucky": 5528,
      "ĠThese": 5529,
      "enty": 5530,
      "ĠItÃ¢": 5531,
      "ĠFloppy": 5532,
      "terday": 5533,
      "Ġunlocked": 5534,
      "inda": 5535,
      "Ġdied": 5536,
      "Ġrecognize": 5537,
      "Ġdownstairs": 5538,
      "Ġcreation": 5539,
      "Ġcatching": 5540,
      "Ġgrandmother": 5541,
      "Ġoxygen": 5542,
      "isten": 5543,
      "Ġmonsters": 5544,
      "ĠGr": 5545,
      "Ġtremble": 5546,
      "Ġchef": 5547,
      "Ġeats": 5548,
      "ĠNutty": 5549,
      "Ġpupil": 5550,
      "ik": 5551,
      "One": 5552,
      "Ġwanting": 5553,
      "Ġnightmare": 5554,
      "Ġjogged": 5555,
      "Ġcape": 5556,
      "Ġstripes": 5557,
      "Ġdoctors": 5558,
      "ĠRabbit": 5559,
      "Ġsoaring": 5560,
      "Ġblueberry": 5561,
      "ley": 5562,
      "ĠSomething": 5563,
      "ĠOw": 5564,
      "Spot": 5565,
      "Ġstruggled": 5566,
      "Ġlemons": 5567,
      "ĠTiny": 5568,
      "rs": 5569,
      "Ġwondering": 5570,
      "Ġbleeding": 5571,
      "Ġpunished": 5572,
      "ĠBetty": 5573,
      "Ġgained": 5574,
      "Ġfamil": 5575,
      "ĠLul": 5576,
      "ĠHop": 5577,
      "Ġfetch": 5578,
      "Ġexamined": 5579,
      "Ġnicer": 5580,
      "len": 5581,
      "ĠJessie": 5582,
      "Ġguessed": 5583,
      "Ġplanned": 5584,
      "Ġdrag": 5585,
      "Ġcaut": 5586,
      "Ġsitu": 5587,
      "Ġmachines": 5588,
      "Ġmission": 5589,
      "Ġstealing": 5590,
      "Ġargued": 5591,
      "Ġarea": 5592,
      "Ġcomple": 5593,
      "Ġpiles": 5594,
      "Ġsi": 5595,
      "Ġherbs": 5596,
      "Ġfreeze": 5597,
      "Ġintroduc": 5598,
      "Ġstirring": 5599,
      "ĠTilly": 5600,
      "Ġripped": 5601,
      "ĠCar": 5602,
      "Ġsix": 5603,
      "ĠCarl": 5604,
      "Ġchallenge": 5605,
      "ĠAdam": 5606,
      "Ġtugged": 5607,
      "Ġstudied": 5608,
      "She": 5609,
      "Ġfiremen": 5610,
      "Ġbend": 5611,
      "Ġbare": 5612,
      "Ġwagging": 5613,
      "Ġzooming": 5614,
      "Ġaccidents": 5615,
      "Ġvictory": 5616,
      "Ġsatisfied": 5617,
      "Ġwreck": 5618,
      "Daddy": 5619,
      "ĠHannah": 5620,
      "Ġinstruct": 5621,
      "Ġproperly": 5622,
      "Ġkeys": 5623,
      "Ġwinning": 5624,
      "Ġshivering": 5625,
      "looking": 5626,
      "Ġbunnies": 5627,
      "Ġincrease": 5628,
      "agull": 5629,
      "ding": 5630,
      "Ġgathering": 5631,
      "Ġtune": 5632,
      "Ġmice": 5633,
      "Or": 5634,
      "Ġexit": 5635,
      "Ġfirefight": 5636,
      "Ġoutdoors": 5637,
      "ĠYes": 5638,
      "Ġwinner": 5639,
      "Ġtwirling": 5640,
      "Ġslapped": 5641,
      "Ġloaded": 5642,
      "Ġteasing": 5643,
      "Ġpeel": 5644,
      "Ġdecorated": 5645,
      "xu": 5646,
      "Ġdeser": 5647,
      "Ġsupplies": 5648,
      "ĠLulu": 5649,
      "Ġyelling": 5650,
      "Ġune": 5651,
      "Ġneighbourhood": 5652,
      "Ġseagull": 5653,
      "Ġunderneath": 5654,
      "Ġpermit": 5655,
      "Ġsights": 5656,
      "Ġtickets": 5657,
      "ĠAunt": 5658,
      "ĠMatt": 5659,
      "Ġann": 5660,
      "ĠChirpy": 5661,
      "Ġpancakes": 5662,
      "Ġbegin": 5663,
      "Ġburrow": 5664,
      "Ġpearl": 5665,
      "ĠAbby": 5666,
      "Ġrides": 5667,
      "Ġsiren": 5668,
      "Ġpeaches": 5669,
      "ĠSl": 5670,
      "Ġmixing": 5671,
      "ĠSusan": 5672,
      "Ġreleased": 5673,
      "Ġdraws": 5674,
      "Ġweighed": 5675,
      "aky": 5676,
      "Ġsneaked": 5677,
      "ĠBubbles": 5678,
      "ica": 5679,
      "Mama": 5680,
      "uxu": 5681,
      "indy": 5682,
      ".'": 5683,
      "Ġconfident": 5684,
      "Ġrealize": 5685,
      "Ġinstructions": 5686,
      "ales": 5687,
      "Ġspiders": 5688,
      "Ġintroduce": 5689,
      "Ġluxu": 5690,
      "Ġdam": 5691,
      "Ġmuffins": 5692,
      "Ġcontro": 5693,
      "ĠletÃ¢": 5694,
      "Ġpinched": 5695,
      "Ġbudge": 5696,
      "Ġsolut": 5697,
      "Ġzero": 5698,
      "Ġcompetition": 5699,
      "Ġprinted": 5700,
      "Ġstudying": 5701,
      "ĠOut": 5702,
      "Ġloving": 5703,
      "ĠDid": 5704,
      "Ġbeha": 5705,
      "Ġinch": 5706,
      "Ġpockets": 5707,
      "Ġbaked": 5708,
      "Ġstruck": 5709,
      "ÅĵLook": 5710,
      "Ġshoulders": 5711,
      "Ġbunch": 5712,
      "Ġopin": 5713,
      "ĠLike": 5714,
      "Ġlines": 5715,
      "Ġfrosting": 5716,
      "Ġrelease": 5717,
      "Ġdecides": 5718,
      "Goodbye": 5719,
      "Ġgiggling": 5720,
      "Ġbroom": 5721,
      "Ġourselves": 5722,
      "Ġweb": 5723,
      "Ġpastel": 5724,
      "Happy": 5725,
      "Ġstamps": 5726,
      "Ġtravell": 5727,
      "Ġcones": 5728,
      "ĠMir": 5729,
      "nes": 5730,
      "Ġemergen": 5731,
      "ÅĵHello": 5732,
      "Ġstair": 5733,
      "Ġstitch": 5734,
      "bbing": 5735,
      "ĠStop": 5736,
      "Ġprunes": 5737,
      "ĠMart": 5738,
      "Ġladybug": 5739,
      "Ġsides": 5740,
      "ena": 5741,
      "oed": 5742,
      "Ġgrant": 5743,
      "Ġscurried": 5744,
      "Ġstrings": 5745,
      "âĤ¬âĢĿ": 5746,
      "Ġtim": 5747,
      "ais": 5748,
      "Ġmarks": 5749,
      "Ġruler": 5750,
      "Ġpears": 5751,
      "gers": 5752,
      "ĠWed": 5753,
      "nesday": 5754,
      "Ġrepeated": 5755,
      "Ġdrift": 5756,
      "Ġkeeps": 5757,
      "Ġago": 5758,
      "Ġclaps": 5759,
      "Ex": 5760,
      "Ġpoking": 5761,
      "ĠWednesday": 5762,
      "anta": 5763,
      "ÅĵThis": 5764,
      "Ye": 5765,
      "ays": 5766,
      "Ġcrowd": 5767,
      "ĠBir": 5768,
      "Ġruin": 5769,
      "ĠLou": 5770,
      "Ġprints": 5771,
      "kins": 5772,
      "Ġbrushes": 5773,
      "Ġkicking": 5774,
      "Ġstretching": 5775,
      "Ġdemanded": 5776,
      "Ġsting": 5777,
      "Ġneighbors": 5778,
      "Ġmentioned": 5779,
      "Ġmast": 5780,
      "owers": 5781,
      "Ġtouching": 5782,
      "Ġtonight": 5783,
      "Ġprotected": 5784,
      "Ġwrites": 5785,
      "Ġsweeties": 5786,
      "xp": 5787,
      "ĠLinda": 5788,
      "ĠJu": 5789,
      "Ġgoodnight": 5790,
      "Joh": 5791,
      "ĠZoom": 5792,
      "uesday": 5793,
      "Ġyouth": 5794,
      "ĠLuke": 5795,
      "Ġbuckets": 5796,
      "Ġribbons": 5797,
      "ĠSanta": 5798,
      "ĠJeff": 5799,
      "va": 5800,
      "jam": 5801,
      "uctantly": 5802,
      "tiest": 5803,
      "ĠTuesday": 5804,
      "bies": 5805,
      "ashed": 5806,
      "Ġprettiest": 5807,
      "ody": 5808,
      "Ġforgi": 5809,
      "Ġvent": 5810,
      "Ġparked": 5811,
      "icky": 5812,
      "Ġproject": 5813,
      "Ġcamping": 5814,
      "Ġsoaked": 5815,
      "zie": 5816,
      "Ġbarely": 5817,
      "Ġhorns": 5818,
      "Ġbouncy": 5819,
      "icked": 5820,
      "ĠBoth": 5821,
      "riage": 5822,
      "hins": 5823,
      "Ġdiscovering": 5824,
      "ÅĵDonÃ¢": 5825,
      "Ġeast": 5826,
      "ĠMomo": 5827,
      "Ġtwinkling": 5828,
      "Ġresult": 5829,
      "Ġexpect": 5830,
      "Ġsurface": 5831,
      "Ġsorting": 5832,
      "Ġdent": 5833,
      "Ġstole": 5834,
      "ÅĵWhy": 5835,
      "Ġwest": 5836,
      "Ġinterest": 5837,
      "Ġvowed": 5838,
      "ĠKayla": 5839,
      "Ġtexture": 5840,
      "Ġgazed": 5841,
      "Ah": 5842,
      "Ġpurred": 5843,
      "Ġsteep": 5844,
      "Ġguys": 5845,
      "ĠAfterwards": 5846,
      "Ġbabies": 5847,
      "Ġshock": 5848,
      "Ġbeard": 5849,
      "Ġmovies": 5850,
      "Ġcautious": 5851,
      "xpected": 5852,
      "zen": 5853,
      "Ġpowers": 5854,
      "Ġapplauded": 5855,
      "Ġ1": 5856,
      "Ġsilence": 5857,
      "ĠHoppy": 5858,
      "thank": 5859,
      "Ġpebbles": 5860,
      "Ġentire": 5861,
      "Ġloose": 5862,
      "Ġcontrol": 5863,
      "Ġtickle": 5864,
      "Ġguns": 5865,
      "Ġurged": 5866,
      "Ġdragons": 5867,
      "Ġacted": 5868,
      "Ġdragged": 5869,
      "Ġunexpected": 5870,
      "Ġluxury": 5871,
      "Ġcatches": 5872,
      "Uh": 5873,
      "edding": 5874,
      "ason": 5875,
      "ern": 5876,
      "Ġmittens": 5877,
      "Ġmuscles": 5878,
      "ĠLizzy": 5879,
      "Ġchewing": 5880,
      "Ġrocking": 5881,
      "Ġflat": 5882,
      "Ġfab": 5883,
      "Ġdolphins": 5884,
      "Ġcompleted": 5885,
      "Ġfabric": 5886,
      "Ġcurtains": 5887,
      "Ġemergency": 5888,
      "Ġblink": 5889,
      "Mia": 5890,
      "Ġintroduced": 5891,
      "une": 5892,
      "ĠJenna": 5893,
      "Ġdirection": 5894,
      "Ġchips": 5895,
      "Ġhonk": 5896,
      "ĠCindy": 5897,
      "Ġseason": 5898,
      "Ġpatience": 5899,
      "Ġstrike": 5900,
      "Ġimportance": 5901,
      "ĠHa": 5902,
      "eezing": 5903,
      "ĠSuzie": 5904,
      "Ġreluctantly": 5905,
      "Ġbank": 5906,
      "Ġeight": 5907,
      "Ġslim": 5908,
      "usted": 5909,
      "Ġfigured": 5910,
      "Ġhighest": 5911,
      "Ġshivered": 5912,
      "Ġfrozen": 5913,
      "Ġlibrarian": 5914,
      "Ġsolution": 5915,
      "Ġcontest": 5916,
      "Ġrocked": 5917,
      "Ġachieve": 5918,
      "Ġscreaming": 5919,
      "Ġchases": 5920,
      "Mum": 5921,
      "Ġreplac": 5922,
      "Ġpouring": 5923,
      "Ġshelves": 5924,
      "Ġwound": 5925,
      "Ġtheirs": 5926,
      "Ġcrumb": 5927,
      "Ġrubbing": 5928,
      "esome": 5929,
      "Ġti": 5930,
      "Ġhugging": 5931,
      "Ġdrives": 5932,
      "Ġstaring": 5933,
      "Ġsorted": 5934,
      "Remember": 5935,
      "Ġsnail": 5936,
      "Ġroaring": 5937,
      "John": 5938,
      "ÅĵOh": 5939,
      "ĠLena": 5940,
      "ledge": 5941,
      "Ġinclude": 5942,
      "Ġplanets": 5943,
      "Somet": 5944,
      "ĠJac": 5945,
      "Ġmater": 5946,
      "Ġmateri": 5947,
      "Ġsafer": 5948,
      "Ġpoliceman": 5949,
      "ĠDolly": 5950,
      "fit": 5951,
      "Ġcurly": 5952,
      "Ġsituation": 5953,
      "Ġfoods": 5954,
      "Ġgreet": 5955,
      "Ġawesome": 5956,
      "ĠcanÃ¢": 5957,
      "Ġusual": 5958,
      "vin": 5959,
      "Ġsighs": 5960,
      "Ġknowledge": 5961,
      "itely": 5962,
      "irts": 5963,
      "Mummy": 5964,
      "Ġpassing": 5965,
      "Ġshined": 5966,
      "Al": 5967,
      "ĠJon": 5968,
      "Ġflags": 5969,
      "Ġexha": 5970,
      "Ġdared": 5971,
      "Ġbalancing": 5972,
      "Ġplenty": 5973,
      "ĠyouÃ¢": 5974,
      "Ġtru": 5975,
      "Ġmatched": 5976,
      "Ġtowels": 5977,
      "Ġlied": 5978,
      "ults": 5979,
      "Ġhomework": 5980,
      "Ġoutfit": 5981,
      "though": 5982,
      "Ġslimy": 5983,
      "Ġbravery": 5984,
      "Gra": 5985,
      "Ġpretends": 5986,
      "Ġtruly": 5987,
      "Ġzookeeper": 5988,
      "avi": 5989,
      "Ġcheering": 5990,
      "Ġheel": 5991,
      "Ġwedding": 5992,
      "Ġgoals": 5993,
      "Ġrainbows": 5994,
      "jamas": 5995,
      "Ġsausages": 5996,
      "cuse": 5997,
      "Ġthreat": 5998,
      "Ġaccomplish": 5999,
      "Ġpatted": 6000,
      "Ġcaused": 6001,
      "Ġpaintings": 6002,
      "Just": 6003,
      "Ġreaching": 6004,
      "ĠSlow": 6005,
      "ĠTara": 6006,
      "ĠMira": 6007,
      "Ġresting": 6008,
      "ĠPinky": 6009,
      "ĠAlways": 6010,
      "ĠJacob": 6011,
      "Ġradishes": 6012,
      "Ġarguing": 6013,
      "ĠMon": 6014,
      "ĠMil": 6015,
      "ĠQuack": 6016,
      "Ġpacking": 6017,
      "Excuse": 6018,
      "...": 6019,
      "bert": 6020,
      "Ġgrowling": 6021,
      "Ġspraying": 6022,
      "Ġblooming": 6023,
      "Ġge": 6024,
      "Ġwaiter": 6025,
      "Ġexhausted": 6026,
      "iar": 6027,
      "ĠTwo": 6028,
      "Ġstruggle": 6029,
      "izzie": 6030,
      "Ġsweets": 6031,
      "Ġsticking": 6032,
      "Ġpout": 6033,
      "ences": 6034,
      "Ġmarkers": 6035,
      "Ġmotion": 6036,
      "Ġworker": 6037,
      "Ġkneeled": 6038,
      "Ġpaddled": 6039,
      "Ġgrowl": 6040,
      "Ġsled": 6041,
      "ĠMick": 6042,
      "immer": 6043,
      "Ġsuitc": 6044,
      "Ġmane": 6045,
      "ĠEx": 6046,
      "Ġsway": 6047,
      "Ġstartled": 6048,
      "Ġsnugg": 6049,
      "Ġcubes": 6050,
      "Ġrescued": 6051,
      "Ġboo": 6052,
      "Ġspike": 6053,
      "Ġwritten": 6054,
      "ĠLizzie": 6055,
      "Ġdusty": 6056,
      "Ġtraveled": 6057,
      "Ġinviting": 6058,
      "hello": 6059,
      "Ġexpected": 6060,
      "Ġbead": 6061,
      "Ġslap": 6062,
      "Ġcuts": 6063,
      "Ġcent": 6064,
      "Ġbottles": 6065,
      "ĠJessica": 6066,
      "Ġmatching": 6067,
      "Ġguest": 6068,
      "Ġsinger": 6069,
      "Ġflavor": 6070,
      "Ġreveal": 6071,
      "Ġlearns": 6072,
      "Ġheav": 6073,
      "lee": 6074,
      "Ġprincesses": 6075,
      "Ġcreating": 6076,
      "ĠJulia": 6077,
      "Ġregretted": 6078,
      "Ġfart": 6079,
      "Ġbloomed": 6080,
      "Yeah": 6081,
      "Ġtrembling": 6082,
      "Ġreplaced": 6083,
      "Ġfir": 6084,
      "Ġarrive": 6085,
      "Ġmarriage": 6086,
      "pite": 6087,
      "you": 6088,
      "Ġrecorded": 6089,
      "aisies": 6090,
      "Ġpencils": 6091,
      "Ġincluded": 6092,
      "Ġlap": 6093,
      "Ġchuck": 6094,
      "Ġobserved": 6095,
      "Ġdisagree": 6096,
      "njoy": 6097,
      "ĠPipp": 6098,
      "Ġdaisies": 6099,
      "Ġpots": 6100,
      "Ġactivities": 6101,
      "When": 6102,
      "Ġprayer": 6103,
      "Ġfirm": 6104,
      "Ġtimer": 6105,
      "ĠMo": 6106,
      "Ġpajamas": 6107,
      "Ġroads": 6108,
      "Ġwires": 6109,
      "ĠĠčĊ": 6110,
      "Ġremoved": 6111,
      "Ġdarkness": 6112,
      "Ġworries": 6113,
      "Ġuses": 6114,
      "Ġventured": 6115,
      "Ġcountryside": 6116,
      "Ġorganizing": 6117,
      "Ġstare": 6118,
      "Ġcompletely": 6119,
      "Ġworkers": 6120,
      "Ġopening": 6121,
      "Ġfairies": 6122,
      "Ġrelief": 6123,
      "Ġwasted": 6124,
      "angled": 6125,
      "Ġleap": 6126,
      "Ġreply": 6127,
      "Ġowners": 6128,
      "Ġstorekeeper": 6129,
      "Ġcott": 6130,
      "Ġbelly": 6131,
      "vers": 6132,
      "Ġranger": 6133,
      "Ġfault": 6134,
      "ĠJohnson": 6135,
      "ĠFox": 6136,
      "Ġpartic": 6137,
      "ĠMel": 6138,
      "Ġunf": 6139,
      "Ġquacked": 6140,
      "Ġpolishing": 6141,
      "Ġleader": 6142,
      "Ġstern": 6143,
      "ora": 6144,
      "iding": 6145,
      "ĠFriend": 6146,
      "Ġbecoming": 6147,
      "Ġflames": 6148,
      "Ġlamb": 6149,
      "ĠSlowly": 6150,
      "Ġkites": 6151,
      "ctions": 6152,
      "Ġagrees": 6153,
      "Ġpoems": 6154,
      "ĠChrist": 6155,
      "Ġpenguins": 6156,
      "ĠwasnÃ¢": 6157,
      "ĠNan": 6158,
      "Ġfaced": 6159,
      "Ġeverybody": 6160,
      "Ġseesaw": 6161,
      "ĠY": 6162,
      "Sometimes": 6163,
      "Ġfolding": 6164,
      "Ġmelting": 6165,
      "Ġscales": 6166,
      "Ġsquealed": 6167,
      "Ġthro": 6168,
      "Ġhealed": 6169,
      "Ġvanish": 6170,
      "Ġhelmets": 6171,
      "ĠJones": 6172,
      "ĠLarry": 6173,
      "Ġwink": 6174,
      "Ġlogs": 6175,
      "ords": 6176,
      "Ġcrabs": 6177,
      "Ġthroat": 6178,
      "hell": 6179,
      "ĠLeave": 6180,
      "Ġusually": 6181,
      "Ġopinion": 6182,
      "Ġcrumbs": 6183,
      "Ġtractor": 6184,
      "Ġripe": 6185,
      "Ġdipped": 6186,
      "opes": 6187,
      "lings": 6188,
      "ĠFollow": 6189,
      "Ġscra": 6190,
      "Ġseems": 6191,
      "Ġast": 6192,
      "Ġlollipops": 6193,
      "Ġtwinkle": 6194,
      "Ġcash": 6195,
      "Ġrisk": 6196,
      "ĠBye": 6197,
      "Ġteaches": 6198,
      "Ġcomm": 6199,
      "Ġgroceries": 6200,
      "Ġden": 6201,
      "Ġknights": 6202,
      "ivery": 6203,
      "asm": 6204,
      "Ġprovided": 6205,
      "Ġdentist": 6206,
      "Ġpolished": 6207,
      "Ġvalued": 6208,
      "Ġstaying": 6209,
      "ids": 6210,
      "elle": 6211,
      "Ġpeeking": 6212,
      "aze": 6213,
      "Jack": 6214,
      "Ġsnakes": 6215,
      "Ġscru": 6216,
      "Ġinterested": 6217,
      "ĠWatch": 6218,
      "Ġblows": 6219,
      "Ġrubs": 6220,
      "Ġcautiously": 6221,
      "ĠPut": 6222,
      "Ġcracked": 6223,
      "Ġrings": 6224,
      "Ġunited": 6225,
      "araway": 6226,
      "Ġfaraway": 6227,
      "ĠLau": 6228,
      "Ġdesert": 6229,
      "ĠSorry": 6230,
      "Ġwinked": 6231,
      "Ġmisses": 6232,
      "Ġprotecting": 6233,
      "Ġfreed": 6234,
      "Ġmarked": 6235,
      "ĠSophia": 6236,
      "ĠBird": 6237,
      "Ġyounger": 6238,
      "ĠMany": 6239,
      "Ġwrist": 6240,
      "Ġcloses": 6241,
      "Ġwandering": 6242,
      "mas": 6243,
      "Ġbalanced": 6244,
      "Ġchuckled": 6245,
      "Ġfuzzy": 6246,
      "Ġforehead": 6247,
      "Ġlistens": 6248,
      "Ġpastries": 6249,
      "Ġsingle": 6250,
      "Ġsigned": 6251,
      "go": 6252,
      "Ġrobb": 6253,
      "ĠJune": 6254,
      "Ġbeads": 6255,
      "Ġparticular": 6256,
      "ĠDoggy": 6257,
      "Ġroses": 6258,
      "boo": 6259,
      "Ġboom": 6260,
      "Ġactions": 6261,
      "Ġdirections": 6262,
      "Ġhowever": 6263,
      "ÅĵMommy": 6264,
      "Ġcopy": 6265,
      "igi": 6266,
      "Ġcough": 6267,
      "Ġsplashes": 6268,
      "ĠBess": 6269,
      "rance": 6270,
      "Ġcrackers": 6271,
      "ĠEl": 6272,
      "Ġbaker": 6273,
      "Ġnaps": 6274,
      "Ġcous": 6275,
      "ĠHappy": 6276,
      "ppers": 6277,
      "Ġroots": 6278,
      "ĠPrin": 6279,
      "Ġfilling": 6280,
      "ĠWithout": 6281,
      "hile": 6282,
      "Ġyesterday": 6283,
      "Ġsnowballs": 6284,
      "ÅĵWhatÃ¢": 6285,
      "Ġrestored": 6286,
      "Ġfluttered": 6287,
      "Ġdelivery": 6288,
      "Ġrolls": 6289,
      "abel": 6290,
      "arling": 6291,
      "Ġstem": 6292,
      "Ġconn": 6293,
      "Ġswooped": 6294,
      "dies": 6295,
      "Ġgaze": 6296,
      "Ġsuitcase": 6297,
      "ĠAbbie": 6298,
      "Ġwiggled": 6299,
      "Ġtipt": 6300,
      "Ġsomebody": 6301,
      "ĠChristmas": 6302,
      "Ġsweat": 6303,
      "ĠLaura": 6304,
      "Bad": 6305,
      "Ġbumpy": 6306,
      "Ġitchy": 6307,
      "bbly": 6308,
      "ĠEverybody": 6309,
      "Ġrefle": 6310,
      "Tommy": 6311,
      "Ġswirl": 6312,
      "Ġslam": 6313,
      "Ëľ": 6314,
      "Ġphotos": 6315,
      "ĠGigi": 6316,
      "âĤ¬Ëľ": 6317,
      "ĠPam": 6318,
      "oline": 6319,
      "Ġstroll": 6320,
      "Ġtwin": 6321,
      "Ġpastels": 6322,
      "Ġcelebration": 6323,
      "Ġtrips": 6324,
      "Ġpedals": 6325,
      "Then": 6326,
      "Ġbacked": 6327,
      "Ġtallest": 6328,
      "ĠNothing": 6329,
      "ĠKeep": 6330,
      "ĠMickey": 6331,
      "Ġawake": 6332,
      "Ġfroze": 6333,
      "Ġcause": 6334,
      "Ġcashier": 6335,
      "ddled": 6336,
      "Ġnect": 6337,
      "Ġremote": 6338,
      "Ġlined": 6339,
      "Ġdarker": 6340,
      "Ġdetermination": 6341,
      "Ġnectar": 6342,
      "ĠNick": 6343,
      "ility": 6344,
      "Ġspeaking": 6345,
      "ĠSparky": 6346,
      "Ġsecure": 6347,
      "ormed": 6348,
      "Ġknees": 6349,
      "Ġwow": 6350,
      "Ġpiggy": 6351,
      "anes": 6352,
      "ĠSque": 6353,
      "Ġcomplaining": 6354,
      "Ġbars": 6355,
      "ĠBeing": 6356,
      "Ġrecording": 6357,
      "Ġsneaky": 6358,
      "ĠJazz": 6359,
      "ĠPandy": 6360,
      "Ġsilent": 6361,
      "Ġvideos": 6362,
      "oys": 6363,
      "Ġhealth": 6364,
      "Ġaccomplishment": 6365,
      "Run": 6366,
      "Ġliqu": 6367,
      "Ġpleasure": 6368,
      "Ġacting": 6369,
      "?\",": 6370,
      "ĠExc": 6371,
      "Ġentrance": 6372,
      "Ġty": 6373,
      "atches": 6374,
      "Ġwears": 6375,
      "Ġrockets": 6376,
      "ĠMa": 6377,
      "Ġdelivered": 6378,
      "Ġmiles": 6379,
      "Ġglee": 6380,
      "Ġinsp": 6381,
      "Ġhi": 6382,
      "esmer": 6383,
      "Ġcoloured": 6384,
      "Ġopp": 6385,
      "ĠEnjoy": 6386,
      "Ġtricked": 6387,
      "ĠEmmy": 6388,
      "Ġmesmer": 6389,
      "sequ": 6390,
      "ĠJay": 6391,
      "boat": 6392,
      "Ġcheeks": 6393,
      "yond": 6394,
      "Ġaff": 6395,
      "Ġbeyond": 6396,
      "Ġafterwards": 6397,
      "Ġnoon": 6398,
      "Ġsib": 6399,
      "Ġconsequ": 6400,
      "Ġhissed": 6401,
      "Ġstays": 6402,
      "Ġinsects": 6403,
      "ĠStella": 6404,
      "Ġglasses": 6405,
      "ky": 6406,
      "Ġbowls": 6407,
      "umm": 6408,
      "Ġjoking": 6409,
      "ĠExcited": 6410,
      "Ġsobbed": 6411,
      "Ġtickled": 6412,
      "Ġfarther": 6413,
      "ĠMikey": 6414,
      "Ġcolored": 6415,
      "Ġburst": 6416,
      "affes": 6417,
      "Ġscaring": 6418,
      "ĠDays": 6419,
      "ĠBuzzy": 6420,
      "Ġstolen": 6421,
      "Fine": 6422,
      "ĠBee": 6423,
      "Ġattack": 6424,
      "Ġsense": 6425,
      "Ġsandcastles": 6426,
      "Ġtricky": 6427,
      "Ġrule": 6428,
      "Ġmasks": 6429,
      "ĠMilo": 6430,
      "Ġcovers": 6431,
      "iki": 6432,
      "Ġdeal": 6433,
      "Ġgiraffes": 6434,
      "Ġinstrum": 6435,
      "ÅĵCome": 6436,
      "Ġcalmed": 6437,
      "Ġhandful": 6438,
      "?'": 6439,
      "ĠSqu": 6440,
      "Ġtalented": 6441,
      "arter": 6442,
      "Ġpause": 6443,
      "Ġtangled": 6444,
      "Ġindeed": 6445,
      "Ġadding": 6446,
      "Ġsmarter": 6447,
      "Ġscarves": 6448,
      "Ġcandies": 6449,
      "ths": 6450,
      "Ġlung": 6451,
      "Ġshirts": 6452,
      "Ġachieved": 6453,
      "Ġchoices": 6454,
      "ĠRobert": 6455,
      "ĠPrincess": 6456,
      "Ġconsequences": 6457,
      "Ġliquid": 6458,
      "ossible": 6459,
      "ĠChris": 6460,
      "Ġyourselves": 6461,
      "rious": 6462,
      "Ġbehavi": 6463,
      "Ġleading": 6464,
      "Ġbumps": 6465,
      "weet": 6466,
      "ĠMaya": 6467,
      "ĠRobbie": 6468,
      "ĠEls": 6469,
      "Ġreads": 6470,
      "Ġbatteries": 6471,
      "igers": 6472,
      "choo": 6473,
      "Ġhesitated": 6474,
      "Ġimpossible": 6475,
      "Ġbadge": 6476,
      "ept": 6477,
      "Ġmi": 6478,
      "aren": 6479,
      "Ġpaddle": 6480,
      "Ġmixture": 6481,
      "ĠGet": 6482,
      "Ġexplorers": 6483,
      "Ġdarling": 6484,
      "iled": 6485,
      "Ġmagnets": 6486,
      "ĠTess": 6487,
      "ĠOlive": 6488,
      "ouch": 6489,
      "ĠRy": 6490,
      "Ġclowns": 6491,
      "Ġkicks": 6492,
      "ĠRobby": 6493,
      "Ġrecommended": 6494,
      "Shh": 6495,
      "ĠSnugg": 6496,
      "Ġweeping": 6497,
      "Ġgracefully": 6498,
      "ners": 6499,
      "Ġexperien": 6500,
      "Ġseashell": 6501,
      "Ġseeker": 6502,
      "ĠZip": 6503,
      "Ġbakery": 6504,
      "Ro": 6505,
      "Ġfirefighters": 6506,
      "anging": 6507,
      "Ġsalty": 6508,
      "vest": 6509,
      "brush": 6510,
      "Ġimproved": 6511,
      "Ġswept": 6512,
      "ĠMartha": 6513,
      "rig": 6514,
      "atul": 6515,
      "coat": 6516,
      "Ġdeserve": 6517,
      "Ġstroked": 6518,
      "Ġflapping": 6519,
      "Ġwipes": 6520,
      "Ġbeginning": 6521,
      "ĠKaren": 6522,
      "Ġcomplained": 6523,
      "Ġmushrooms": 6524,
      "Whe": 6525,
      "urry": 6526,
      "Those": 6527,
      "ĠPl": 6528,
      "ĠPo": 6529,
      "Ġhider": 6530,
      "obody": 6531,
      "itches": 6532,
      "ĠGranny": 6533,
      "Ġsteer": 6534,
      "Ġknocks": 6535,
      "Ġcust": 6536,
      "Ġthorn": 6537,
      "Ġseven": 6538,
      "Ġcans": 6539,
      "Ġteased": 6540,
      "ĠSnuggles": 6541,
      "Ġobjects": 6542,
      "Ġparties": 6543,
      "ÅĵDo": 6544,
      "Ġtravelled": 6545,
      "ĠCu": 6546,
      "Ġthird": 6547,
      "Ġhearing": 6548,
      "Ġbasement": 6549,
      "Ġtigers": 6550,
      "Ġcupcakes": 6551,
      "Ġhoriz": 6552,
      "Ġclick": 6553,
      "ÅĵYouÃ¢": 6554,
      "ĠDr": 6555,
      "ĠSc": 6556,
      "ĠRock": 6557,
      "Ġfever": 6558,
      "Ġsnuck": 6559,
      "Ġheading": 6560,
      "tle": 6561,
      "Ġseconds": 6562,
      "ĠRyan": 6563,
      "Ġdots": 6564,
      "Ġraincoat": 6565,
      "ĠAbi": 6566,
      "Ġsiblings": 6567,
      "Ġhorizon": 6568,
      "elia": 6569,
      "no": 6570,
      "Ġsmiley": 6571,
      "Ġperformance": 6572,
      "Ġcustom": 6573,
      "ĠMabel": 6574,
      "Ġartist": 6575,
      "Ġhallway": 6576,
      "Ġbeam": 6577,
      "Ġmarker": 6578,
      "Ġsnatched": 6579,
      "ĠChe": 6580,
      "Ġlighter": 6581,
      "ĠThanks": 6582,
      "Ġyells": 6583,
      "Ġjackets": 6584,
      "Ġdrums": 6585,
      "Ġfluttering": 6586,
      "indr": 6587,
      "ÅĵHi": 6588,
      "step": 6589,
      "pare": 6590,
      "ans": 6591,
      "Ġruining": 6592,
      "Ġgems": 6593,
      "Ġbedtime": 6594,
      "Next": 6595,
      "igning": 6596,
      "ĠJacky": 6597,
      "ĠWater": 6598,
      "ĠwouldnÃ¢": 6599,
      "iles": 6600,
      "Ġraindr": 6601,
      "Ġwee": 6602,
      "Ġneither": 6603,
      "Ġconcer": 6604,
      "Ġbuying": 6605,
      "ĠAlong": 6606,
      "rigued": 6607,
      "Ġpuppies": 6608,
      "Ġlett": 6609,
      "Ġpaying": 6610,
      "Ġscrubbed": 6611,
      "Ġcelebrating": 6612,
      "Ġfamilies": 6613,
      "ĠFinn": 6614,
      "Ġdollhouse": 6615,
      "Ġannoy": 6616,
      "ÅĵWow": 6617,
      "Ġcreamy": 6618,
      "ĠJanie": 6619,
      "Ġlettuce": 6620,
      "band": 6621,
      "Ġamong": 6622,
      "umbling": 6623,
      "Ġpeacefully": 6624,
      "ĠSim": 6625,
      "Ġrivers": 6626,
      "Ġscratches": 6627,
      "Ġwrapping": 6628,
      "river": 6629,
      "Ġwidened": 6630,
      "Ġdrifted": 6631,
      "Ġrumble": 6632,
      "Ġtasks": 6633,
      "atur": 6634,
      "ivity": 6635,
      "ades": 6636,
      "Ġtreehouse": 6637,
      "Ġhides": 6638,
      "Ġwins": 6639,
      "Ġrepa": 6640,
      "Ġbehaved": 6641,
      "cers": 6642,
      "Ġrusty": 6643,
      "alph": 6644,
      "Ġplayers": 6645,
      "ĠwonÃ¢": 6646,
      "Ġlun": 6647,
      "uzz": 6648,
      "Ġcuddly": 6649,
      "immering": 6650,
      "ael": 6651,
      "fall": 6652,
      "Ġuns": 6653,
      "Ġfact": 6654,
      "Ch": 6655,
      "ounce": 6656,
      "Ġarrows": 6657,
      "Ġrewarded": 6658,
      "Ġwilling": 6659,
      "Ġlower": 6660,
      "Ġneedles": 6661,
      "Ġsource": 6662,
      "Ġcreativity": 6663,
      "Ġshrinking": 6664,
      "ĠRover": 6665,
      "Ġcor": 6666,
      "Ġlosing": 6667,
      "Ġtemper": 6668,
      "Ġech": 6669,
      "Ġrepaired": 6670,
      "Ġpassen": 6671,
      "Ġfears": 6672,
      "iece": 6673,
      "Ġgrandpare": 6674,
      "Ġincluding": 6675,
      "ĠBinky": 6676,
      "Ġchoo": 6677,
      "ĠRalph": 6678,
      "Ġtiptoed": 6679,
      "ĠGina": 6680,
      "itched": 6681,
      "ĠKiki": 6682,
      "Ġcreations": 6683,
      "Ġtapped": 6684,
      "ĠJackie": 6685,
      "ĠGoodbye": 6686,
      "Ġgrassy": 6687,
      "Ġchefs": 6688,
      "ongr": 6689,
      "Ġdef": 6690,
      "ded": 6691,
      "Ġminerals": 6692,
      "Ġseparated": 6693,
      "Ġsprinkled": 6694,
      "ĠMaddie": 6695,
      "jo": 6696,
      "Ġrising": 6697,
      "Ġimagining": 6698,
      "oey": 6699,
      "Ġgranted": 6700,
      "ichael": 6701,
      "ĠSadie": 6702,
      "Ġchop": 6703,
      "Ġaud": 6704,
      "Ġgross": 6705,
      "ĠDuring": 6706,
      "Ġtempt": 6707,
      "Ġaren": 6708,
      "Ġswimsuit": 6709,
      "ongratul": 6710,
      "Great": 6711,
      "Ġtiss": 6712,
      "ĠRemember": 6713,
      "Ġpans": 6714,
      "Ġlimes": 6715,
      "cus": 6716,
      "hog": 6717,
      "Ġstomped": 6718,
      "ĠMichael": 6719,
      "Ġscrewd": 6720,
      "Ġcoup": 6721,
      "Ġgrabbing": 6722,
      "ĠNobody": 6723,
      "ĠJudy": 6724,
      "Ġpouted": 6725,
      "Ġbackwards": 6726,
      "Ġspong": 6727,
      "itude": 6728,
      "Ġdecorating": 6729,
      "ÅĵMy": 6730,
      "Ġdamage": 6731,
      "ishy": 6732,
      "Ġhesitant": 6733,
      "Ġearn": 6734,
      "Ġprinting": 6735,
      "Ġpeppers": 6736,
      "Ġstung": 6737,
      "Ġsquares": 6738,
      "Ġunpacked": 6739,
      "Have": 6740,
      "ments": 6741,
      "cl": 6742,
      "Ġtramp": 6743,
      "ntil": 6744,
      "Ġslower": 6745,
      "Ġcowb": 6746,
      "Ġdiving": 6747,
      "Ġplanning": 6748,
      "Time": 6749,
      "Ġbeloved": 6750,
      "Ġonions": 6751,
      "ĠSimon": 6752,
      "pr": 6753,
      "ĠMarie": 6754,
      "Ġmaterials": 6755,
      "ĠQ": 6756,
      "Ġheavier": 6757,
      "ĠCra": 6758,
      "Ġchip": 6759,
      "Ġgrowls": 6760,
      "Ġraindrops": 6761,
      "Ġwrink": 6762,
      "Ġmer": 6763,
      "ĠUntil": 6764,
      "Ġpointy": 6765,
      "ĠSqueaky": 6766,
      "ĠBluey": 6767,
      "Ġsnowmen": 6768,
      "ĠFlop": 6769,
      "cope": 6770,
      "Ġsurroundings": 6771,
      "Ġpromises": 6772,
      "Ġavoid": 6773,
      "Ġscrewdriver": 6774,
      "ĠTodd": 6775,
      "ĠSince": 6776,
      "Ġrecipe": 6777,
      "Ġaudience": 6778,
      "Ġsailboat": 6779,
      "Ġcousin": 6780,
      "Meow": 6781,
      "ĠFar": 6782,
      "Ġrustling": 6783,
      "Ġforgiven": 6784,
      "Ġneighbours": 6785,
      "Ġblocking": 6786,
      "Ġhus": 6787,
      "Ġcenter": 6788,
      "Yummy": 6789,
      "kend": 6790,
      "Ġslices": 6791,
      "Ġgobbled": 6792,
      "Today": 6793,
      "Ġwiping": 6794,
      "Ġweekend": 6795,
      "Ġtemperature": 6796,
      "eds": 6797,
      "Ġtouc": 6798,
      "Ġhedgehog": 6799,
      "Ġtrampoline": 6800,
      "ĠEarth": 6801,
      "ueen": 6802,
      "Ġrefu": 6803,
      "Ġarr": 6804,
      "Ġhelpers": 6805,
      "ĠLia": 6806,
      "Ġwobbled": 6807,
      "ably": 6808,
      "Ġrip": 6809,
      "Ġwindy": 6810,
      "Ġcouple": 6811,
      "yes": 6812,
      "Ġstool": 6813,
      "Ġdiscussed": 6814,
      "sty": 6815,
      "Ġdesigned": 6816,
      "Ġornaments": 6817,
      "Ġdreamt": 6818,
      "Oops": 6819,
      "itted": 6820,
      "Ġnoses": 6821,
      "Ġcorners": 6822,
      "child": 6823,
      "Ġpecked": 6824,
      "Ġslammed": 6825,
      "Lila": 6826,
      "int": 6827,
      "unched": 6828,
      "Ġswans": 6829,
      "Ġafford": 6830,
      "iley": 6831,
      "Ew": 6832,
      "Ġfeast": 6833,
      "Ġsports": 6834,
      "Ġhitting": 6835,
      "Ġage": 6836,
      "Roar": 6837,
      "Ġstreets": 6838,
      "Ġwag": 6839,
      "Ġtissue": 6840,
      "Ġdads": 6841,
      "ĠZara": 6842,
      "Ġache": 6843,
      "Ġaside": 6844,
      "ccoon": 6845,
      "Ġraccoon": 6846,
      "Ġsponge": 6847,
      "Ġstain": 6848,
      "Ġrequested": 6849,
      "ĠBack": 6850,
      "Ġmeals": 6851,
      "Le": 6852,
      "Ġcuriously": 6853,
      "Ġforks": 6854,
      "Ġsunflowers": 6855,
      "Ġreflection": 6856,
      "Ġsnowfl": 6857,
      "ĠZoey": 6858,
      "Ġwarnings": 6859,
      "Ġtails": 6860,
      "arrow": 6861,
      "Rex": 6862,
      "Ġdances": 6863,
      "Ġprett": 6864,
      "Ġplans": 6865,
      "Ġbows": 6866,
      "ido": 6867,
      "Ġvanilla": 6868,
      "ĠQueen": 6869,
      "cky": 6870,
      "Ġshaped": 6871,
      "Ġfamiliar": 6872,
      "Ġsparks": 6873,
      "ĠAlthough": 6874,
      "Ġdet": 6875,
      "Ġgri": 6876,
      "Ġleaning": 6877,
      "Ġdollars": 6878,
      "ĠThose": 6879,
      "Ġcoloring": 6880,
      "Ġremembering": 6881,
      "Ġadult": 6882,
      "ĠAsh": 6883,
      "Ġbreathed": 6884,
      "Ġintrigued": 6885,
      "Ġgreeted": 6886,
      "Ġsale": 6887,
      "Ġscrews": 6888,
      "Ġgrandchild": 6889,
      "ition": 6890,
      "Ġduckling": 6891,
      "Ġforgets": 6892,
      "Ġspreading": 6893,
      "osen": 6894,
      "Ġgasp": 6895,
      "Ġchosen": 6896,
      "Ġastron": 6897,
      "Ġthrown": 6898,
      "Ġshops": 6899,
      "ĠAmelia": 6900,
      "Ġprettier": 6901,
      "Ġtwice": 6902,
      "Ġpraying": 6903,
      "ĠHoot": 6904,
      "Ġtunnels": 6905,
      "Ġhour": 6906,
      "aker": 6907,
      "Ġpotion": 6908,
      "Ġenthusi": 6909,
      "Grandma": 6910,
      "Ġtouches": 6911,
      "Ġastronaut": 6912,
      "--": 6913,
      "Ġswords": 6914,
      "Ġenthusiasm": 6915,
      "Ġhusband": 6916,
      "ĠOur": 6917,
      "arac": 6918,
      "Ġsailors": 6919,
      "ertain": 6920,
      "Ġgardener": 6921,
      "otten": 6922,
      "Ġmoo": 6923,
      "endy": 6924,
      "Ġhops": 6925,
      "Ġzipping": 6926,
      "Ġspikes": 6927,
      "Ġsuperheroes": 6928,
      "Ġcorre": 6929,
      "Ġreason": 6930,
      "ĠFu": 6931,
      "Ġmagician": 6932,
      "Ġwishing": 6933,
      "Ġdaring": 6934,
      "Ġspoonful": 6935,
      "Ġgrandparents": 6936,
      "mallow": 6937,
      "Ġleast": 6938,
      "Ġmarsh": 6939,
      "shions": 6940,
      "Ġskunk": 6941,
      "Ġreass": 6942,
      "ĠFido": 6943,
      "Ġchanging": 6944,
      "ĠFriends": 6945,
      "Ġdod": 6946,
      "Ġborrowed": 6947,
      "ĠMeg": 6948,
      "Ġtodd": 6949,
      "Ġscamp": 6950,
      "Ġcounts": 6951,
      "Ġpens": 6952,
      "Ġflight": 6953,
      "Ġforgetting": 6954,
      "Ġrotten": 6955,
      "Ġbodies": 6956,
      "Ġencourag": 6957,
      "ĠLi": 6958,
      "ĠDavey": 6959,
      "Ġflavors": 6960,
      "Ġ10": 6961,
      "Ġguests": 6962,
      "Woof": 6963,
      "Ġhopeful": 6964,
      "ently": 6965,
      "Ġneare": 6966,
      "ĠMomma": 6967,
      "ĠStar": 6968,
      "Ġwoof": 6969,
      "ounced": 6970,
      "Ġsnuggle": 6971,
      "Ġmesmerized": 6972,
      "Ġsending": 6973,
      "fly": 6974,
      "Ġheroes": 6975,
      "Ġcharac": 6976,
      "Ġcharacter": 6977,
      "Ġmuscle": 6978,
      "stick": 6979,
      "ĠSun": 6980,
      "Ġbuzzed": 6981,
      "Ġseaw": 6982,
      "Ġneatly": 6983,
      "Ġgrows": 6984,
      "wk": 6985,
      "ĠWendy": 6986,
      "Ġwraps": 6987,
      "ĠListen": 6988,
      "Ġsteady": 6989,
      "Ġposs": 6990,
      "Whee": 6991,
      "Ġnibb": 6992,
      "Ġfeeding": 6993,
      "oni": 6994,
      "Ġmarshmallow": 6995,
      "ĠDe": 6996,
      "Ġhandsome": 6997,
      "Ġcond": 6998,
      "Our": 6999,
      "Ġmints": 7000,
      "irrel": 7001,
      "Ġdelivering": 7002,
      "Ġnine": 7003,
      "Ġoh": 7004,
      "antha": 7005,
      "llen": 7006,
      "Ġdived": 7007,
      "ĠAli": 7008,
      "bba": 7009,
      "Ġpolitely": 7010,
      "Ġzebras": 7011,
      "ĠQuick": 7012,
      "Ġonward": 7013,
      "Ġalien": 7014,
      "Ġsuffering": 7015,
      "Ġnapkins": 7016,
      "ĠFrog": 7017,
      "the": 7018,
      "Ġwarmer": 7019,
      "Boo": 7020,
      "years": 7021,
      "ĠSof": 7022,
      "Ġsneezing": 7023,
      "Ġbaths": 7024,
      "Ġhonked": 7025,
      "ĠSamantha": 7026,
      "Ġplain": 7027,
      "Ġdefe": 7028,
      "Ġplucked": 7029,
      "Ġcrashing": 7030,
      "ĠUnder": 7031,
      "ĠMaddy": 7032,
      "Ġmatters": 7033,
      "Ġembarrass": 7034,
      "Ġposter": 7035,
      "ection": 7036,
      "ĠthatÃ¢": 7037,
      "meal": 7038,
      "Ġlifts": 7039,
      "ĠHolly": 7040,
      "Ġrefreshing": 7041,
      "ÅĵMom": 7042,
      "Ġunsure": 7043,
      "Ġseaweed": 7044,
      "ĠBirthday": 7045,
      "Ġlungs": 7046,
      "ĠRuth": 7047,
      "Ġstudents": 7048,
      "Ġincreased": 7049,
      "ĠFarmer": 7050,
      "Ġcrew": 7051,
      "Ġjoining": 7052,
      "Ġstands": 7053,
      "Ġtoddler": 7054,
      "Ġoatmeal": 7055,
      "Some": 7056,
      "Ġscen": 7057,
      "allowed": 7058,
      "Ġproper": 7059,
      "Ġpreparing": 7060,
      "Ġswallowed": 7061,
      "ĠDes": 7062,
      "Ġdip": 7063,
      "Ġglued": 7064,
      "Ġthud": 7065,
      "ÅĵBut": 7066,
      "Ġexpress": 7067,
      "Ġfocu": 7068,
      "ĠFrosty": 7069,
      "ĠBessie": 7070,
      "Ġwhispers": 7071,
      "Ġrespond": 7072,
      "Ġwatering": 7073,
      "aster": 7074,
      "Ġamount": 7075,
      "Ġdie": 7076,
      "Ġropes": 7077,
      "ĠBaa": 7078,
      "Ġperformed": 7079,
      "Ġtoaster": 7080,
      "Ġstarfish": 7081,
      "Ġleads": 7082,
      "Ġtrembled": 7083,
      "Ġpresses": 7084,
      "Ġwobbly": 7085,
      "Ġtriangles": 7086,
      "Ġhawk": 7087,
      "Ġlessons": 7088,
      "Ġcushions": 7089,
      "Ġbiting": 7090,
      "Ġpostman": 7091,
      "ĠThatÃ¢": 7092,
      "Ġgeese": 7093,
      "while": 7094,
      "Ġcau": 7095,
      "ÅĵWell": 7096,
      "ĠPatch": 7097,
      "Ġdancers": 7098,
      "Ġpops": 7099,
      "Ġpuff": 7100,
      "Ġtalks": 7101,
      "Ġsniffs": 7102,
      "Ġresisted": 7103,
      "Ġscraped": 7104,
      "Ġfocused": 7105,
      "Ġmerry": 7106,
      "ĠLove": 7107,
      "Ġbully": 7108,
      "Ġadults": 7109,
      "Ġpanicked": 7110,
      "ĠMouse": 7111,
      "Ġconfl": 7112,
      "Ġrushing": 7113,
      "Ġnecklaces": 7114,
      "Ġfreedom": 7115,
      "vant": 7116,
      "Ġflas": 7117,
      "Ġpuppet": 7118,
      "ĠSquirrel": 7119,
      "Ġsofter": 7120,
      "Ġslips": 7121,
      "ĠBubba": 7122,
      "Ġwaddled": 7123,
      "Ġfirmly": 7124,
      "Ġtrot": 7125,
      "iona": 7126,
      "ados": 7127,
      "Ġjoyful": 7128,
      "ĠMegan": 7129,
      "Ġfirefly": 7130,
      "Ġencouraging": 7131,
      "Ġtested": 7132,
      "Ġwrigg": 7133,
      "Ġdropping": 7134,
      "ÅĵWhere": 7135,
      "Ġdrawers": 7136,
      "Ġfrowning": 7137,
      "Ġtables": 7138,
      "onna": 7139,
      "Ġwaterfall": 7140,
      "Ġworn": 7141,
      "Ġwiggle": 7142,
      "Bun": 7143,
      "Lucy": 7144,
      "Ġev": 7145,
      "ippy": 7146,
      "ĠMean": 7147,
      "Ġblast": 7148,
      "ĠRay": 7149,
      "Ġnervously": 7150,
      "Ġfaded": 7151,
      "ĠMina": 7152,
      "rey": 7153,
      "Ġlifting": 7154,
      "bird": 7155,
      "ĠOnly": 7156,
      "Ġscampered": 7157,
      "Ġrout": 7158,
      "Ġdrivers": 7159,
      "Ġhumans": 7160,
      "lets": 7161,
      "Ġspat": 7162,
      "Ġexplo": 7163,
      "cake": 7164,
      "ĠAng": 7165,
      "Ġappreciation": 7166,
      "ĠHoney": 7167,
      "Ġpours": 7168,
      "ĠFreddie": 7169,
      "Ġfirefighter": 7170,
      "Ġrobber": 7171,
      "Ġdrawn": 7172,
      "Ġsqueak": 7173,
      "Ġthoughts": 7174,
      "Ġpennies": 7175,
      "Ġrespected": 7176,
      "ĠStay": 7177,
      "Ġquarreling": 7178,
      "Ġpigeons": 7179,
      "ĠFlopsy": 7180,
      "ĠSofia": 7181,
      "Ġthroughout": 7182,
      "Ġtwinkled": 7183,
      "Ġleapt": 7184,
      "retty": 7185,
      "ĠTuna": 7186,
      "Ġocc": 7187,
      "ĠFiona": 7188,
      "Ġstacked": 7189,
      "ĠKaty": 7190,
      "ĠFuzzy": 7191,
      "Ġdresser": 7192,
      "ĠFe": 7193,
      "Fo": 7194,
      "Ġscient": 7195,
      "Ġfits": 7196,
      "rrr": 7197,
      "Ġcoc": 7198,
      "but": 7199,
      "Ġmaster": 7200,
      "Ġscientist": 7201,
      "Bob": 7202,
      "roken": 7203,
      "ĠMeanwhile": 7204,
      "ĠEva": 7205,
      "ĠPh": 7206,
      "Ġbravest": 7207,
      "Ġavocados": 7208,
      "Ġovercome": 7209,
      "Ġstrongest": 7210,
      "Ġmonths": 7211,
      "ushed": 7212,
      "Ġelf": 7213,
      "Ġpolar": 7214,
      "ears": 7215,
      "Ġplaytime": 7216,
      "Ġsan": 7217,
      "Ġnotes": 7218,
      "Listen": 7219,
      "Ġgonna": 7220,
      "fire": 7221,
      "Ġnur": 7222,
      "ĠTake": 7223,
      "ĠSpl": 7224,
      "Ġcertain": 7225,
      "ĠIm": 7226,
      "Ġmanag": 7227,
      "Ġwept": 7228,
      "Ġnood": 7229,
      "oke": 7230,
      "Ġmunch": 7231,
      "Ġspins": 7232,
      "Ġscored": 7233,
      "Ġcolder": 7234,
      "Ġechoed": 7235,
      "bage": 7236,
      "Ġcosy": 7237,
      "Ġconvers": 7238,
      "ĠUp": 7239,
      "Ġwakes": 7240,
      "Ġgarbage": 7241,
      "Ġplayroom": 7242,
      "Ġdesigns": 7243,
      "Ġperforming": 7244,
      "eezes": 7245,
      "Ġpeck": 7246,
      "Mine": 7247,
      "Ġprob": 7248,
      "Ġsank": 7249,
      "Ġflown": 7250,
      "Ġtricycle": 7251,
      "Ġsweetest": 7252,
      "ĠOwl": 7253,
      "Ġprove": 7254,
      "Ġforgiving": 7255,
      "Ġprobably": 7256,
      "Ġmarshmallows": 7257,
      "ca": 7258,
      "Ġgest": 7259,
      "Ġbehaving": 7260,
      "cher": 7261,
      "rying": 7262,
      "iment": 7263,
      "Ġpumpkins": 7264,
      "ĠJonny": 7265,
      "Ġexplorer": 7266,
      "Ġguide": 7267,
      "please": 7268,
      "Ġsqueezing": 7269,
      "Ġrobots": 7270,
      "ĠFire": 7271,
      "Ġtossed": 7272,
      "ÅĵIf": 7273,
      "Ġblinking": 7274,
      "hew": 7275,
      "bbling": 7276,
      "Ġcausing": 7277,
      "ĠJojo": 7278,
      "Ġbells": 7279,
      "undred": 7280,
      "...\"": 7281,
      "Very": 7282,
      "broken": 7283,
      "Ġshown": 7284,
      "Ġcobwebs": 7285,
      "ÅĵOkay": 7286,
      "urprise": 7287,
      "Ġsquishy": 7288,
      "ĠDespite": 7289,
      "ĠMae": 7290,
      "Like": 7291,
      "Ġspices": 7292,
      "Ġhaird": 7293,
      "Ġpassengers": 7294,
      "Ġcongratul": 7295,
      "Ġcraft": 7296,
      "Ġties": 7297,
      "fus": 7298,
      "Ġtighter": 7299,
      "Ġhealing": 7300,
      "Ġmate": 7301,
      "Ġangels": 7302,
      "?!\"": 7303,
      "Ġyielded": 7304,
      "ĠLouise": 7305,
      "ading": 7306,
      "Ġreversed": 7307,
      "ilda": 7308,
      "Ġpound": 7309,
      "Ġsadd": 7310,
      "ĠDani": 7311,
      "ĠYesterday": 7312,
      "Ġaimed": 7313,
      "Ġnapping": 7314,
      "ĠCurious": 7315,
      "Ġgiggles": 7316,
      "upt": 7317,
      "ĠTam": 7318,
      "Ġnearly": 7319,
      "Ġpays": 7320,
      "Ġoffic": 7321,
      "ĠAlly": 7322,
      "Ġ2": 7323,
      "Ġunw": 7324,
      "Ġdistract": 7325,
      "Ġkittens": 7326,
      "ĠStill": 7327,
      "Ġinstruments": 7328,
      "Ġwider": 7329,
      "ĠBirdy": 7330,
      "Follow": 7331,
      "Ġreun": 7332,
      "mates": 7333,
      "Ġsewing": 7334,
      "alloween": 7335,
      "Ġtil": 7336,
      "aying": 7337,
      "Ġnuzz": 7338,
      "Ġdoorway": 7339,
      "Ġconflict": 7340,
      "ĠBecause": 7341,
      "Ġclues": 7342,
      "Ġappreciated": 7343,
      "Ġinj": 7344,
      "ĠMaisy": 7345,
      "Ġpaintbrush": 7346,
      "Ġbrushing": 7347,
      "found": 7348,
      "Ġcoug": 7349,
      "Ġshoo": 7350,
      "Ġgrandd": 7351,
      "Ġaction": 7352,
      "Watch": 7353,
      "Ġyum": 7354,
      "ĠWell": 7355,
      "Ġease": 7356,
      "Ġloading": 7357,
      "Ġbru": 7358,
      "Ġpassports": 7359,
      "Ġcottage": 7360,
      "onies": 7361,
      "Alright": 7362,
      "ĠHalloween": 7363,
      "Ġpaths": 7364,
      "Sue": 7365,
      "Ġheartbroken": 7366,
      "ĠRocky": 7367,
      "Ġais": 7368,
      "Ġblocked": 7369,
      "Ġmerma": 7370,
      "ĠPen": 7371,
      "Ġlaying": 7372,
      "Ġslipping": 7373,
      "ino": 7374,
      "Ġsweep": 7375,
      "Ġresults": 7376,
      "Ġanger": 7377,
      "Ġbelts": 7378,
      "Ġrepeating": 7379,
      "Ġpins": 7380,
      "Ġfigures": 7381,
      "Ġbits": 7382,
      "Ġevil": 7383,
      "Ġsoaking": 7384,
      "antastic": 7385,
      "idey": 7386,
      "ĠPippa": 7387,
      "Ġmailed": 7388,
      "Ġwithin": 7389,
      "ĠHope": 7390,
      "asty": 7391,
      "ĠStart": 7392,
      "Ġtwisty": 7393,
      "isc": 7394,
      "ĠMother": 7395,
      "Ġtwisting": 7396,
      "ĠPippin": 7397,
      "Ġsuffered": 7398,
      "dding": 7399,
      "Ġtuck": 7400,
      "Ġconnected": 7401,
      "Ġpuzzled": 7402,
      "ĠBecky": 7403,
      "âĤ¬,": 7404,
      "Ġshovels": 7405,
      "Ġbuses": 7406,
      "Ġaccomplished": 7407,
      "Ġdamaged": 7408,
      "Ġnoodles": 7409,
      "Ġund": 7410,
      "Ġcrossing": 7411,
      "Ġhundred": 7412,
      "ighting": 7413,
      "Ġbreathing": 7414,
      "Ġsever": 7415,
      "Ġlicking": 7416,
      "Ġbehavior": 7417,
      "Ġroars": 7418,
      "Ġseveral": 7419,
      "Ġtying": 7420,
      "Ġshrug": 7421,
      "Ġresponsib": 7422,
      "Ġbracelets": 7423,
      "Ġsurfing": 7424,
      "Ġsurrendered": 7425,
      "Ġrisks": 7426,
      "Ġfinishing": 7427,
      "Ġdespite": 7428,
      "Ġfleas": 7429,
      "Ġtoward": 7430,
      "ÅĵPlease": 7431,
      "Ġencount": 7432,
      "ĠGreen": 7433,
      "ĠSpidey": 7434,
      "Ġlending": 7435,
      "Ġstreamers": 7436,
      "Ġhairdress": 7437,
      "Ġhumming": 7438,
      "Ġdefin": 7439,
      "ĠGa": 7440,
      "byes": 7441,
      "lves": 7442,
      "ĠTime": 7443,
      "Ġsupported": 7444,
      "ĠAuntie": 7445,
      "Ġshady": 7446,
      "Ġoysters": 7447,
      "Ġcleaner": 7448,
      "Ġquieter": 7449,
      "Ġawoke": 7450,
      "Vroom": 7451,
      "Ġluckily": 7452,
      "Ġgoodbyes": 7453,
      "Ġwhose": 7454,
      "ÅĵOf": 7455,
      "Ġignoring": 7456,
      "ĠEliz": 7457,
      "Ġstitches": 7458,
      "Ġrainy": 7459,
      "Ġrather": 7460,
      "ĠKelly": 7461,
      "Ġtablet": 7462,
      "isions": 7463,
      "Ġponies": 7464,
      "Take": 7465,
      "ĠWil": 7466,
      "ĠFlo": 7467,
      "Ġedges": 7468,
      "Ġcuddles": 7469,
      "ĠFrankie": 7470,
      "erk": 7471,
      "Ġfantastic": 7472,
      "unity": 7473,
      "ecca": 7474,
      "eling": 7475,
      "Ġslither": 7476,
      "Ġcloudy": 7477,
      "Ġfrowns": 7478,
      "Surprise": 7479,
      "ĠWally": 7480,
      "Ġhanding": 7481,
      "ening": 7482,
      "Ġfinal": 7483,
      "Ġsnowflakes": 7484,
      "ĠKevin": 7485,
      "ĠJaney": 7486,
      "ppies": 7487,
      "Ġsped": 7488,
      "Ġdrown": 7489,
      "Ġelbow": 7490,
      "Ġhairdresser": 7491,
      "Ġcotton": 7492,
      "Ġthorns": 7493,
      "Ġdefinitely": 7494,
      "Ġcoral": 7495,
      "Ġrains": 7496,
      "ĠPretty": 7497,
      "Ġfocus": 7498,
      "Ġgesture": 7499,
      "ĠLuc": 7500,
      "Ġkings": 7501,
      "Ġsmallest": 7502,
      "Ġsurv": 7503,
      "Ġbattle": 7504,
      "Ġsy": 7505,
      "Ġreminding": 7506,
      "Ġwisely": 7507,
      "ÅĵNow": 7508,
      "crow": 7509,
      "Ġcorrectly": 7510,
      "Ġvines": 7511,
      "Ġdecisions": 7512,
      "Ġdriveway": 7513,
      "Ġsou": 7514,
      "ĠAny": 7515,
      "onnie": 7516,
      "athy": 7517,
      "Ġpeeled": 7518,
      "ĠX": 7519,
      "Ġnewfound": 7520,
      "Ġsqueaked": 7521,
      "whe": 7522,
      "Ġchopped": 7523,
      "Ġsharks": 7524,
      "Ġprick": 7525,
      "Ġstudent": 7526,
      "Ġsnort": 7527,
      "Ġwarri": 7528,
      "Ġgrandson": 7529,
      "ĠRain": 7530,
      "Ġsymbols": 7531,
      "Ġweeds": 7532,
      "Ġsimply": 7533,
      "Ġfishes": 7534,
      "ĠFroggy": 7535,
      "rie": 7536,
      "cent": 7537,
      "ĠAr": 7538,
      "Ġbandages": 7539,
      "Ġgranddaughter": 7540,
      "Ġwobble": 7541,
      "onse": 7542,
      "Ġresponse": 7543,
      "Ġnasty": 7544,
      "Ġexcept": 7545,
      "Ġexercises": 7546,
      "we": 7547,
      "Ġstopping": 7548,
      "steps": 7549,
      "ĠDaniel": 7550,
      "ĠPepper": 7551,
      "Ġtar": 7552,
      "Ġoccas": 7553,
      "elie": 7554,
      "Ġafar": 7555,
      "Ġbanged": 7556,
      "Ġdarl": 7557,
      "Ġni": 7558,
      "Ġinspired": 7559,
      "Ġdarlings": 7560,
      "father": 7561,
      "Ġtravels": 7562,
      "Ġtipped": 7563,
      "Ġdisturbing": 7564,
      "Ġfills": 7565,
      "Ġmasterp": 7566,
      "Ġlent": 7567,
      "Ġflipped": 7568,
      "ÅĵHey": 7569,
      "Ġfootsteps": 7570,
      "ĠJax": 7571,
      "worm": 7572,
      "Ġpedaled": 7573,
      "line": 7574,
      "Ġbirdhouse": 7575,
      "Ġwindowsill": 7576,
      "Ġpurr": 7577,
      "Ġspits": 7578,
      "Ġtravelling": 7579,
      "ĠWelcome": 7580,
      "Ġships": 7581,
      "Ġconvin": 7582,
      "Ġpresented": 7583,
      "aa": 7584,
      "ĠStan": 7585,
      "Ġscarecrow": 7586,
      "sol": 7587,
      "Ġaddress": 7588,
      "Ġpunishment": 7589,
      "Ġplanting": 7590,
      "Ġapologised": 7591,
      "mered": 7592,
      "ĠAna": 7593,
      "Ġchocolates": 7594,
      "ĠDory": 7595,
      "ĠJoan": 7596,
      "Ġantic": 7597,
      "ĠExcitedly": 7598,
      "ddie": 7599,
      "Ġforests": 7600,
      "ĠBounce": 7601,
      "Ġsurfboard": 7602,
      "Cl": 7603,
      "ms": 7604,
      "Ġcongratulated": 7605,
      "ĠElle": 7606,
      "Ġarranged": 7607,
      "Ġbelieving": 7608,
      "Ġreassured": 7609,
      "Ġtrotted": 7610,
      "ĠRoger": 7611,
      "ĠPhil": 7612,
      "Ġreunited": 7613,
      "ĠGus": 7614,
      "Ġnodding": 7615,
      "Ġencouragement": 7616,
      "Ġcheers": 7617,
      "ĠPu": 7618,
      "Ġlies": 7619,
      "Ġimages": 7620,
      "ĠFeeling": 7621,
      "Ġpoppies": 7622,
      "Ġreapp": 7623,
      "Ġcampfire": 7624,
      "Ġsuits": 7625,
      "Ġbusiness": 7626,
      "Ġclerk": 7627,
      "ĠSplash": 7628,
      "Ġtarget": 7629,
      "ooky": 7630,
      "Ġmarve": 7631,
      "Ġsails": 7632,
      "Ġmagnif": 7633,
      "issa": 7634,
      "perate": 7635,
      "Ġofficers": 7636,
      "Ġterrified": 7637,
      "Ġbackpacks": 7638,
      "manda": 7639,
      "ĠPatty": 7640,
      "Ġgrip": 7641,
      "Ġcovering": 7642,
      "utter": 7643,
      "Ġyel": 7644,
      "Ġknots": 7645,
      "Ġactivity": 7646,
      "ĠBow": 7647,
      "inkle": 7648,
      "ĠNancy": 7649,
      "Ġyelped": 7650,
      "Ġsurprising": 7651,
      "Ġwrinkled": 7652,
      "Ġsmelling": 7653,
      "Ġexpert": 7654,
      "ĠOther": 7655,
      "Ġmood": 7656,
      "Beep": 7657,
      "Ġmasterpiece": 7658,
      "Ġdep": 7659,
      "ĠFighting": 7660,
      "otte": 7661,
      "ĠSnowman": 7662,
      "ĠAmanda": 7663,
      "Ġchanges": 7664,
      "Ġconcert": 7665,
      "Ġchilly": 7666,
      "Quick": 7667,
      "Ġspills": 7668,
      "Ġspeeding": 7669,
      "Ġtesting": 7670,
      "ĠBri": 7671,
      "Ġtasting": 7672,
      "Ġbraver": 7673,
      "Ġpleaded": 7674,
      "Ġsniffing": 7675,
      "ĠOkay": 7676,
      "Ġcomforting": 7677,
      "Ġdelayed": 7678,
      "Ġgears": 7679,
      "Ġcalmly": 7680,
      "ĠStartled": 7681,
      "ats": 7682,
      "ĠElly": 7683,
      "acle": 7684,
      "acles": 7685,
      "asha": 7686,
      "Ġlabels": 7687,
      "ĠDuck": 7688,
      "ĠDog": 7689,
      "ider": 7690,
      "Ġmermaid": 7691,
      "Ġsuggestion": 7692,
      "Ġaware": 7693,
      "Ġdiscussing": 7694,
      "Ġstumble": 7695,
      "ĠTry": 7696,
      "Ġjars": 7697,
      "Ġspies": 7698,
      "ĠJean": 7699,
      "Ġbelongings": 7700,
      "Ġmischie": 7701,
      "ĠQuackers": 7702,
      "Ġworrying": 7703,
      "Ġmagazines": 7704,
      "Ġbothering": 7705,
      "flies": 7706,
      "Ġcrowns": 7707,
      "Ġartwork": 7708,
      "Ġalthough": 7709,
      "Ġunderstands": 7710,
      "Ġdisplayed": 7711,
      "Ġmischievous": 7712,
      "ails": 7713,
      "ĠCharlotte": 7714,
      "Ġpuck": 7715,
      "Ġadmiration": 7716,
      "Ġefforts": 7717,
      "Ġburying": 7718,
      "Ġheight": 7719,
      "Ġfoxes": 7720,
      "screen": 7721,
      "emma": 7722,
      "Ġhoo": 7723,
      "Ġunfortunately": 7724,
      "pen": 7725,
      "Ġsav": 7726,
      "Little": 7727,
      "Ġrefuse": 7728,
      "Ġseller": 7729,
      "Ġbaskets": 7730,
      "Ġtoolbox": 7731,
      "rier": 7732,
      "ĠHelen": 7733,
      "ighing": 7734,
      "Ġbuddy": 7735,
      "ĠOutside": 7736,
      "Ġbitten": 7737,
      "ĠSpe": 7738,
      "Ġexperienced": 7739,
      "Ġdecl": 7740,
      "Ġbless": 7741,
      "inted": 7742,
      "Ġque": 7743,
      "vroom": 7744,
      "Ġdragonfly": 7745,
      "Ġvehicles": 7746,
      "wise": 7747,
      "bell": 7748,
      "Ġpackages": 7749,
      "what": 7750,
      "Ġdisc": 7751,
      "Ġsolving": 7752,
      "Ġdump": 7753,
      "ibbit": 7754,
      "ĠTy": 7755,
      "ugging": 7756,
      "Ġpandas": 7757,
      "ÅĵA": 7758,
      "Ġannoyed": 7759,
      "Ġtumbled": 7760,
      "Ġmomma": 7761,
      "Ġmemb": 7762,
      "ipes": 7763,
      "aturday": 7764,
      "Ġmembers": 7765,
      "ĠEddie": 7766,
      "Ġseashells": 7767,
      "ĠSnowball": 7768,
      "ÅĵThe": 7769,
      "Ġfires": 7770,
      "ĠSaturday": 7771,
      "Ġwarmly": 7772,
      "Ġposit": 7773,
      "Ġwealth": 7774,
      "Ġnibbled": 7775,
      "ĠLina": 7776,
      "Ġsunscreen": 7777,
      "ĠEric": 7778,
      "aint": 7779,
      "Ġpeas": 7780,
      "Ġtreated": 7781,
      "Ġtroubles": 7782,
      "Ġsquaw": 7783,
      "Ġrotting": 7784,
      "ĠElsa": 7785,
      "Ġscent": 7786,
      "Ġmaterial": 7787,
      "ĠAnnab": 7788,
      "ÅĵSure": 7789,
      "ĠFort": 7790,
      "Ġconqu": 7791,
      "Ġstomp": 7792,
      "Ġgazing": 7793,
      "Ġcoach": 7794,
      "Ġinsisting": 7795,
      "Ġuntied": 7796,
      "Ġdiso": 7797,
      "Ġprayers": 7798,
      "Ġenviron": 7799,
      "Ġparted": 7800,
      "Ġconversation": 7801,
      "ĠTammy": 7802,
      "ĠSasha": 7803,
      "Ġcollap": 7804,
      "ĠRudy": 7805,
      "Ġencountered": 7806,
      "Ġjoins": 7807,
      "Ġloops": 7808,
      "Ġraces": 7809,
      "Ġsewed": 7810,
      "aver": 7811,
      "Ġsill": 7812,
      "Ġteachers": 7813,
      "Ġenvironment": 7814,
      "Ġscurrying": 7815,
      "owing": 7816,
      "attered": 7817,
      "Ġwhispering": 7818,
      "Ġjoked": 7819,
      "Ġargum": 7820,
      "Ġpurpose": 7821,
      "Ġtilted": 7822,
      "ĠAva": 7823,
      "Ġstored": 7824,
      "Ġorders": 7825,
      "Ġloses": 7826,
      "Dear": 7827,
      "Ġexch": 7828,
      "Ġhoops": 7829,
      "Ġgenie": 7830,
      "Ġcowboy": 7831,
      "ĠFortunately": 7832,
      "ppa": 7833,
      "Ġsheets": 7834,
      "Ġspooky": 7835,
      "Ġtweet": 7836,
      "Ġtoss": 7837,
      "order": 7838,
      "Ġpermitted": 7839,
      "airy": 7840,
      "Get": 7841,
      "ĠTerry": 7842,
      "Goodnight": 7843,
      "Ġaim": 7844,
      "ongo": 7845,
      "ĠSe": 7846,
      "Ġdiamonds": 7847,
      "Ġscram": 7848,
      "Ġtype": 7849,
      "iscuit": 7850,
      "Ġpupils": 7851,
      "Ġanticip": 7852,
      "Ġglittering": 7853,
      "Ġtrans": 7854,
      "Ġqueens": 7855,
      "Ġturtles": 7856,
      "illiam": 7857,
      "Ġbeaming": 7858,
      "Ġnearest": 7859,
      "Ġends": 7860,
      "Ġtubes": 7861,
      "Ġmaker": 7862,
      "Ġservant": 7863,
      "ÅĵSee": 7864,
      "ĠLy": 7865,
      "ĠSw": 7866,
      "ĠJason": 7867,
      "Ġdonkey": 7868,
      "Ġvisitors": 7869,
      "Ġfilms": 7870,
      "Ġspells": 7871,
      "Ġopport": 7872,
      "Ġgap": 7873,
      "igger": 7874,
      "Ġuntie": 7875,
      "ĠStitch": 7876,
      "ĠWoo": 7877,
      "Ġcleared": 7878,
      "Ġfins": 7879,
      "Ġstroke": 7880,
      "Ġrin": 7881,
      "Ġtapping": 7882,
      "Ġoppos": 7883,
      "Ġwasting": 7884,
      "ĠMin": 7885,
      "Ġcustomers": 7886,
      "Ġnurses": 7887,
      "usty": 7888,
      "Ġpriz": 7889,
      "Ġswo": 7890,
      "Ġshall": 7891,
      "Ġhunters": 7892,
      "Ġger": 7893,
      "Ġconvinced": 7894,
      "ĠGrand": 7895,
      "Ġwounds": 7896,
      "Ġswollen": 7897,
      "aven": 7898,
      "ĠHold": 7899,
      "ĠSeeing": 7900,
      "Ġgoats": 7901,
      "Ġsweaty": 7902,
      "ĠSpeedy": 7903,
      "Every": 7904,
      "ĠIzzy": 7905,
      "Ġdressing": 7906,
      "Ġslowed": 7907,
      "ĠPoor": 7908,
      "ĠWilliam": 7909,
      "ĠBobbie": 7910,
      "Ġdeclared": 7911,
      "Ġdot": 7912,
      "Ġexamining": 7913,
      "orter": 7914,
      "elope": 7915,
      "ĠSk": 7916,
      "Ġopposite": 7917,
      "Jim": 7918,
      "ĠRicky": 7919,
      "Ġcharacters": 7920,
      "ilities": 7921,
      "Ġfailed": 7922,
      "ĠNana": 7923,
      "Ġtidied": 7924,
      "ĠElsie": 7925,
      "Ġtransf": 7926,
      "Ġgrandfather": 7927,
      "Ġwarrior": 7928,
      "ĠFinny": 7929,
      "Ġforgiveness": 7930,
      "Ġsternly": 7931,
      "Ġgoodies": 7932,
      "Ġguessing": 7933,
      "Ġlipstick": 7934,
      "Ġpeep": 7935,
      "Ġyoungest": 7936,
      "Ġscratching": 7937,
      "Leave": 7938,
      "Ġseagulls": 7939,
      "mies": 7940,
      "rest": 7941,
      "Ġinchworm": 7942,
      "Ġbeeped": 7943,
      "ĠLion": 7944,
      "empt": 7945,
      "Ġmeowing": 7946,
      "Ġrescuing": 7947,
      "Ġthanking": 7948,
      "Ġquestioned": 7949,
      "ĠSpring": 7950,
      "Ġattempt": 7951,
      "Ġscrambled": 7952,
      "ĠLa": 7953,
      "ĠYouÃ¢": 7954,
      "Ġgrat": 7955,
      "Ġdripping": 7956,
      "Wh": 7957,
      "Ġbou": 7958,
      "Ġtires": 7959,
      "Ġbouqu": 7960,
      "Ġactive": 7961,
      "Ġstall": 7962,
      "ĠBongo": 7963,
      "Ġform": 7964,
      "ĠOliv": 7965,
      "Ġanticipation": 7966,
      "rily": 7967,
      "Ġpicnics": 7968,
      "Ġnibble": 7969,
      "acy": 7970,
      "Ġaisle": 7971,
      "Ġblond": 7972,
      "Ġfloors": 7973,
      "Ġresponded": 7974,
      "Ġresponsibility": 7975,
      "Ġshin": 7976,
      "Ġsmashed": 7977,
      "Ġattacked": 7978,
      "Ġmatey": 7979,
      "Ġforce": 7980,
      "Ġexplains": 7981,
      "Ġknocking": 7982,
      "Ġemerged": 7983,
      "Ġobeyed": 7984,
      "ĠTaking": 7985,
      "Ġinter": 7986,
      "Ġdiscoveries": 7987,
      "Ġgratitude": 7988,
      "Ġting": 7989,
      "Ġjud": 7990,
      "Ġvibr": 7991,
      "cie": 7992,
      "Ġrely": 7993,
      "Stay": 7994,
      "Ġrays": 7995,
      "Ġzooms": 7996,
      "Ġdecoration": 7997,
      "Ġmanners": 7998,
      "Ġcharge": 7999,
      "Ġclassmates": 8000,
      "ĠTessa": 8001,
      "Ġsprout": 8002,
      "ĠAmber": 8003,
      "Ġsens": 8004,
      "Ġsnug": 8005,
      "Ġvisits": 8006,
      "ĠBrian": 8007,
      "Ġsigning": 8008,
      "ĠReb": 8009,
      "ĠPeppa": 8010,
      "Ġspy": 8011,
      "ÅĵWho": 8012,
      "Ġaeroplanes": 8013,
      "Ġsoot": 8014,
      "ĠgirlÃ¢": 8015,
      "Ġtwists": 8016,
      "Ġsurvive": 8017,
      "Ġvegg": 8018,
      "Ġinstantly": 8019,
      "Always": 8020,
      "munk": 8021,
      "anda": 8022,
      "ippers": 8023,
      "Fl": 8024,
      "So": 8025,
      "Ġloc": 8026,
      "ĠWin": 8027,
      "Ġwiggly": 8028,
      "Ġseals": 8029,
      "ĠBeh": 8030,
      "Ġself": 8031,
      "Ġbreaths": 8032,
      "Ġunwra": 8033,
      "Ġramp": 8034,
      "Ġrumbling": 8035,
      "roll": 8036,
      "ĠRebecca": 8037,
      "act": 8038,
      "sm": 8039,
      "ĠGary": 8040,
      "Ġbuckled": 8041,
      "ana": 8042,
      "Ġbrightest": 8043,
      "ĠPenelope": 8044,
      "Ġshrunk": 8045,
      "yl": 8046,
      "Ġmunched": 8047,
      "Ġbond": 8048,
      "Ġbeeh": 8049,
      "Ġincreasing": 8050,
      "ĠMatilda": 8051,
      "Ġhen": 8052,
      "Ġshimmering": 8053,
      "athan": 8054,
      "Ġpurrs": 8055,
      "Ġmanager": 8056,
      "idence": 8057,
      "Ġdoorbell": 8058,
      "Ġflaps": 8059,
      "Ġearned": 8060,
      "Ġchatter": 8061,
      "gain": 8062,
      "ooking": 8063,
      "ĠOlivia": 8064,
      "ching": 8065,
      "Ġmovements": 8066,
      "Ġlowered": 8067,
      "udged": 8068,
      "Ġswaying": 8069,
      "iens": 8070,
      "ĠCrabby": 8071,
      "ittered": 8072,
      "Ġaliens": 8073,
      "Ġhonking": 8074,
      "Ġcracks": 8075,
      "All": 8076,
      "ĠAnt": 8077,
      "ĠZoomy": 8078,
      "Ġargument": 8079,
      "ssss": 8080,
      "ĠChick": 8081,
      "Ġchipmunk": 8082,
      "Ġdisobey": 8083,
      "inger": 8084,
      "Ġwhoever": 8085,
      "Ġwinding": 8086,
      "romise": 8087,
      "ĠFel": 8088,
      "Ġannounced": 8089,
      "ummies": 8090,
      "Ġprevented": 8091,
      "its": 8092,
      "Ġbeaver": 8093,
      "ÅĵGood": 8094,
      "Ġrowed": 8095,
      "ĠSparkle": 8096,
      "Ġswitched": 8097,
      "Ġbathing": 8098,
      "lied": 8099,
      "Ġamu": 8100,
      "Ġmosquitoes": 8101,
      "Ġtaped": 8102,
      "storm": 8103,
      "Ġposes": 8104,
      "oscope": 8105,
      "ĠStep": 8106,
      "Ġoffering": 8107,
      "Ġswap": 8108,
      "Ġnuzzled": 8109,
      "aby": 8110,
      "Ġcons": 8111,
      "Ġprickly": 8112,
      "aret": 8113,
      "flowers": 8114,
      "ĠAshley": 8115,
      "ĠShelly": 8116,
      "Ġswayed": 8117,
      "Ġsteth": 8118,
      "Ġflips": 8119,
      "uel": 8120,
      "Ġdestroying": 8121,
      "Ġlapt": 8122,
      "Ġdesigning": 8123,
      "Ġminds": 8124,
      "ĠRobo": 8125,
      "ĠMam": 8126,
      "Ġcares": 8127,
      "bee": 8128,
      "Ġbadger": 8129,
      "ĠBehind": 8130,
      "LetÃ¢": 8131,
      "Ġjobs": 8132,
      "Ġdodged": 8133,
      "ĠJilly": 8134,
      "Ġglimmering": 8135,
      "Ġrats": 8136,
      "Ġcrawls": 8137,
      "ddles": 8138,
      "ĠEver": 8139,
      "Ġwhistles": 8140,
      "ĠAngel": 8141,
      "Ġsmelt": 8142,
      "Bang": 8143,
      "Ġcrops": 8144,
      "ĠSir": 8145,
      "rink": 8146,
      "Ġbeautifully": 8147,
      "Ġobserving": 8148,
      "Ġdangers": 8149,
      "Ġbeating": 8150,
      "Ġshines": 8151,
      "Ġexploded": 8152,
      "ĠSweet": 8153,
      "Ġknives": 8154,
      "Ġmillion": 8155,
      "Ġscolds": 8156,
      "Ġcheckout": 8157,
      "Ġscooters": 8158,
      "Ġstamped": 8159,
      "Ġsnaps": 8160,
      "angle": 8161,
      "ĠReady": 8162,
      "da": 8163,
      "Ġcustomer": 8164,
      "Ġgenerosity": 8165,
      "lph": 8166,
      "Ġgroan": 8167,
      "ĠEliza": 8168,
      "Ġdeed": 8169,
      "Ġlanguages": 8170,
      "boards": 8171,
      "Ġgerms": 8172,
      "Ġrecorder": 8173,
      "Ġhike": 8174,
      "Ġhonesty": 8175,
      "Ġtummies": 8176,
      "Ġstethoscope": 8177,
      "Ġrobbers": 8178,
      "oc": 8179,
      "Ġclosing": 8180,
      "ĠGracie": 8181,
      "Ġpaddling": 8182,
      "Ġcocoon": 8183,
      "ĠBad": 8184,
      "ĠBert": 8185,
      "ĠCle": 8186,
      "Ġdrowned": 8187,
      "Ġhaven": 8188,
      "Ġplug": 8189,
      "Ġclicked": 8190,
      "lt": 8191,
      "ĠCara": 8192,
      "ĠTrust": 8193,
      "Ġexpecting": 8194,
      "abra": 8195,
      "Ġlaptop": 8196,
      "ĠPau": 8197,
      "ĠNever": 8198,
      "Ġroutine": 8199,
      "Ġsupplied": 8200,
      "Ġastronauts": 8201,
      "ĠZero": 8202,
      "Mr": 8203,
      "ĠPeggy": 8204,
      "Ġexplor": 8205,
      "Ġdisappoint": 8206,
      "Ġveggies": 8207,
      "Ġcourt": 8208,
      "ulp": 8209,
      "lor": 8210,
      "ĠNora": 8211,
      "ĠRud": 8212,
      "Ġdears": 8213,
      "Ġsteering": 8214,
      "oosh": 8215,
      "otch": 8216,
      "ĠBonnie": 8217,
      "Ġtidying": 8218,
      "Ġadds": 8219,
      "Ġconduct": 8220,
      "Ġbouquet": 8221,
      "Ġbeehive": 8222,
      "Any": 8223,
      "Ġill": 8224,
      "lest": 8225,
      "Ġsculp": 8226,
      "Ġunpacking": 8227,
      "Ġnovels": 8228,
      "ÅĵMaybe": 8229,
      "arable": 8230,
      "Ġcupcake": 8231,
      "Ġstatues": 8232,
      "Ġtin": 8233,
      "ita": 8234,
      "Ġchatted": 8235,
      "Ġparticularly": 8236,
      "ĠJenn": 8237,
      "Ġreminds": 8238,
      "ĠGabby": 8239,
      "olph": 8240,
      "pit": 8241,
      "Ġshorts": 8242,
      "Ġhardest": 8243,
      "Ġcaw": 8244,
      "Ġstretches": 8245,
      "Ġapplause": 8246,
      "Ġhealthier": 8247,
      "water": 8248,
      "ĠHo": 8249,
      "ĠBelle": 8250,
      "ĠDonÃ¢": 8251,
      "Ġwiser": 8252,
      "ĠIsn": 8253,
      "Ġfloats": 8254,
      "Ġghosts": 8255,
      "Ġconductor": 8256,
      "Arrr": 8257,
      "Ġstrum": 8258,
      "Ġheaven": 8259,
      "Nice": 8260,
      "Ġawful": 8261,
      "Ġdollar": 8262,
      "ĠCr": 8263,
      "Ġplugged": 8264,
      "pril": 8265,
      "ĠRudolph": 8266,
      "rup": 8267,
      "Ġwildflowers": 8268,
      "Ġscri": 8269,
      "ĠRiley": 8270,
      "Ġelect": 8271,
      "ĠZack": 8272,
      "Too": 8273,
      "ĠEle": 8274,
      "ĠTyler": 8275,
      "idents": 8276,
      "idnight": 8277,
      "Ġtraded": 8278,
      "Ġoverhead": 8279,
      "Ġsquished": 8280,
      "An": 8281,
      "ĠwhatÃ¢": 8282,
      "Ġcombed": 8283,
      "Someone": 8284,
      "Ġcarries": 8285,
      "Ġnests": 8286,
      "Ġopinions": 8287,
      "ĠCarla": 8288,
      "Ġsyrup": 8289,
      "Ġfaint": 8290,
      "Ġfascinating": 8291,
      "ĠAndrew": 8292,
      "anced": 8293,
      "Ġswallow": 8294,
      "Ġexperiences": 8295,
      "ĠRight": 8296,
      "Ġsprays": 8297,
      "Ġbeast": 8298,
      "Ġumbrellas": 8299,
      "omb": 8300,
      "Ġcontainer": 8301,
      "Ġouch": 8302,
      "Ġkilled": 8303,
      "Ġreturning": 8304,
      "Ġbothered": 8305,
      "elieve": 8306,
      "ative": 8307,
      "rough": 8308,
      "Ġgall": 8309,
      "Ġlocks": 8310,
      "ĠApril": 8311,
      "Ġproviding": 8312,
      "five": 8313,
      "Ġsets": 8314,
      "Ġflashing": 8315,
      "ĠImmediately": 8316,
      "ĠPaula": 8317,
      "earing": 8318,
      "Ġshorter": 8319,
      "Ġexamp": 8320,
      "ÅĵOk": 8321,
      "Ġsculpture": 8322,
      "Ġflashed": 8323,
      "ĠRosa": 8324,
      "chy": 8325,
      "Ġchecks": 8326,
      "Ġweapons": 8327,
      "rench": 8328,
      "ouraged": 8329,
      "Ġteles": 8330,
      "Ġtearing": 8331,
      "Ġbounces": 8332,
      "ĠQuickly": 8333,
      "ĠHar": 8334,
      "orking": 8335,
      "ÅĵBe": 8336,
      "Ġpapa": 8337,
      "Ġhotter": 8338,
      "Ġtests": 8339,
      "ordinary": 8340,
      "Ġdefeated": 8341,
      "Ġinches": 8342,
      "Quack": 8343,
      "ĠAnother": 8344,
      "Ġgrumbled": 8345,
      "Ġglided": 8346,
      "Ġfarmers": 8347,
      "Ġsprinkle": 8348,
      "lo": 8349,
      "Ġnights": 8350,
      "Ġscrub": 8351,
      "Ġfaith": 8352,
      "ccidents": 8353,
      "Ġhu": 8354,
      "Ġburnt": 8355,
      "centr": 8356,
      "ators": 8357,
      "ĠFlora": 8358,
      "Ġconv": 8359,
      "Ġtelescope": 8360,
      "ĠMelissa": 8361,
      "ĠLiam": 8362,
      "bu": 8363,
      "ĠButter": 8364,
      "ĠFoxy": 8365,
      "Ġsadder": 8366,
      "ĠPrince": 8367,
      "eople": 8368,
      "ĠBang": 8369,
      "Ġconcentr": 8370,
      "Ġtrusting": 8371,
      "Ġapplauding": 8372,
      "Ġconfidence": 8373,
      "ĠAnnabelle": 8374,
      "ooks": 8375,
      "Ġtwenty": 8376,
      "Ġserving": 8377,
      "iving": 8378,
      "Ġelectric": 8379,
      "Ġhiss": 8380,
      "ĠFairy": 8381,
      "Ġconvince": 8382,
      "ession": 8383,
      "Ġgardens": 8384,
      "Ġcheated": 8385,
      "lers": 8386,
      "Ġicing": 8387,
      "ended": 8388,
      "âĤ¬Â": 8389,
      "Ġbluebird": 8390,
      "ĠMila": 8391,
      "Ġnecks": 8392,
      "ĠDino": 8393,
      "Ġburns": 8394,
      "Ġawhile": 8395,
      "Ġcrystals": 8396,
      "Choo": 8397,
      "ĠWooly": 8398,
      "Ġcubs": 8399,
      "ĠSay": 8400,
      "Ġvisitor": 8401,
      "âĤ¬Â¦": 8402,
      "Ġpetting": 8403,
      "Ġteams": 8404,
      "parable": 8405,
      "vy": 8406,
      "Ġraising": 8407,
      "Molly": 8408,
      "Ġcollapsed": 8409,
      "ances": 8410,
      "Ġchecking": 8411,
      "Ġextraordinary": 8412,
      "Ġinseparable": 8413,
      "Ġblown": 8414,
      "Ġdryer": 8415,
      "Ġgoo": 8416,
      "ĠPick": 8417,
      "Ġforgives": 8418,
      "Ġsirens": 8419,
      "ĠBarry": 8420,
      "ĠWigg": 8421,
      "Ġtypes": 8422,
      "Ġmunching": 8423,
      "Ġsoapy": 8424,
      "Ġmember": 8425,
      "Ġexample": 8426,
      "eep": 8427,
      "Ġborn": 8428,
      "ĠLiza": 8429,
      "Ġodd": 8430,
      "Ġgrassho": 8431,
      "Ġimaginary": 8432,
      "Ġinstrument": 8433,
      "Kids": 8434,
      "Put": 8435,
      "Ġbiscuit": 8436,
      "Ġplayd": 8437,
      "Ġnatur": 8438,
      "Ġbehaviour": 8439,
      "Ġprizes": 8440,
      "Billy": 8441,
      "bl": 8442,
      "Ġmac": 8443,
      "Ġmeows": 8444,
      "Ġsingers": 8445,
      "Ġwaded": 8446,
      "Ġbicycles": 8447,
      "His": 8448,
      "val": 8449,
      "Ġkit": 8450,
      "ĠmomÃ¢": 8451,
      "over": 8452,
      "Ġcompan": 8453,
      "ĠMagic": 8454,
      "ĠSparkles": 8455,
      "ĠMona": 8456,
      "shaped": 8457,
      "Ġsprang": 8458,
      "ĠSmo": 8459,
      "Ġwaters": 8460,
      "Ġflick": 8461,
      "Ġsalon": 8462,
      "Ġpeeped": 8463,
      "Ġupside": 8464,
      "Ġdock": 8465,
      "On": 8466,
      "Ġlim": 8467,
      "Ġflip": 8468,
      "ĠTwinkle": 8469,
      "Ġopportunity": 8470,
      "ĠLenny": 8471,
      "adabra": 8472,
      "Ġattitude": 8473,
      "ĠRufus": 8474,
      "Ġexploration": 8475,
      "Ġinvent": 8476,
      "Ġtraveling": 8477,
      "Ġlongest": 8478,
      "ĠCandy": 8479,
      "Ġconquered": 8480,
      "Boys": 8481,
      "Ġunlo": 8482,
      "Ġexpression": 8483,
      "Ġdistracted": 8484,
      "Ġhood": 8485,
      "adually": 8486,
      "ĠRich": 8487,
      "Ġsandy": 8488,
      "Ġbride": 8489,
      "Ġrealizes": 8490,
      "Ġhunting": 8491,
      "Ġcheaper": 8492,
      "cadabra": 8493,
      "Ġdeserved": 8494,
      "Ġenem": 8495,
      "Ġflowing": 8496,
      "Ġenemies": 8497,
      "Ġfet": 8498,
      "Ġunable": 8499,
      "Ġwriggled": 8500,
      "ĠWilly": 8501,
      "Ġtrigger": 8502,
      "Ġpills": 8503,
      "Ġcoolest": 8504,
      "ĠPin": 8505,
      "Ġsweaters": 8506,
      "ĠSky": 8507,
      "Ġmommies": 8508,
      "ĠWo": 8509,
      "Ġflock": 8510,
      "Ġengines": 8511,
      "ĠJose": 8512,
      "Ġenvelopes": 8513,
      "getic": 8514,
      "ĠJody": 8515,
      "ĠPet": 8516,
      "Ġotters": 8517,
      "Ġ5": 8518,
      "Ġbomb": 8519,
      "Ġgulp": 8520,
      "Ġclearly": 8521,
      "In": 8522,
      "Sally": 8523,
      "rick": 8524,
      "str": 8525,
      "Ġdiscouraged": 8526,
      "Ġburger": 8527,
      "Sarah": 8528,
      "Ġrows": 8529,
      "Ġswimmer": 8530,
      "free": 8531,
      "Ġwhales": 8532,
      "ĠNe": 8533,
      "whel": 8534,
      "Ġclip": 8535,
      "Ġcompete": 8536,
      "Ġreappeared": 8537,
      "erg": 8538,
      "Ġchatting": 8539,
      "Ġtips": 8540,
      "ouched": 8541,
      "ĠMidnight": 8542,
      "Ġgrasshopper": 8543,
      "Ġcountries": 8544,
      "Ġpasses": 8545,
      "Ġglittered": 8546,
      "Ġquacking": 8547,
      "ending": 8548,
      "Ġsometime": 8549,
      "Ġrobin": 8550,
      "jest": 8551,
      "ĠSand": 8552,
      "Ġthump": 8553,
      "aptain": 8554,
      "Ġoverwhel": 8555,
      "Ġunco": 8556,
      "balls": 8557,
      "Ġtorto": 8558,
      "Pl": 8559,
      "icate": 8560,
      "Ġability": 8561,
      "ship": 8562,
      "ĠJennie": 8563,
      "Ġpatches": 8564,
      "Ġannoying": 8565,
      "off": 8566,
      "ĠEd": 8567,
      "Ġmattered": 8568,
      "ĠOliver": 8569,
      "ĠOink": 8570,
      "Ġspilling": 8571,
      "Ġdetails": 8572,
      "ĠMake": 8573,
      "Ġenjoyable": 8574,
      "Ġstrips": 8575,
      "ingo": 8576,
      "Ab": 8577,
      "Ġtortoise": 8578,
      "Ġcommon": 8579,
      "Ġfond": 8580,
      "Ġcrowded": 8581,
      "Ġwhined": 8582,
      "Ġcheat": 8583,
      "Ġsincere": 8584,
      "iter": 8585,
      "ĠStri": 8586,
      "Ġgallop": 8587,
      "Ġtreas": 8588,
      "ĠZee": 8589,
      "Ġthicker": 8590,
      "Ġrelaxing": 8591,
      "Ġuniforms": 8592,
      "Ġapproach": 8593,
      "ĠMartin": 8594,
      "Ġdoz": 8595,
      "Ġjugg": 8596,
      "ĠGray": 8597,
      "Ġsoundly": 8598,
      "Ġsurely": 8599,
      "Ġyawning": 8600,
      "Ġcompanion": 8601,
      "Ġcheerfully": 8602,
      "Ġhangers": 8603,
      "ĠBoo": 8604,
      "Ġmarking": 8605,
      "Ġcurl": 8606,
      "ĠBra": 8607,
      "ĠShow": 8608,
      "oard": 8609,
      "aus": 8610,
      "Jo": 8611,
      "stand": 8612,
      "Ġskies": 8613,
      "iolet": 8614,
      "ĠJanet": 8615,
      "ĠJoanna": 8616,
      "ĠLooking": 8617,
      "ĠNice": 8618,
      "Ġprod": 8619,
      "Ġstur": 8620,
      "Ġformed": 8621,
      "ĠKy": 8622,
      "Ġcafe": 8623,
      "Ġbecomes": 8624,
      "Ġwhisk": 8625,
      "Ġnatural": 8626,
      "ĠThrough": 8627,
      "ĠMoo": 8628,
      "Ġoutfits": 8629,
      "Ġwashes": 8630,
      "Ġbeetles": 8631,
      "Ġtreasured": 8632,
      "Keep": 8633,
      "ĠMonkey": 8634,
      "ĠAgain": 8635,
      "ĠCare": 8636,
      "ĠYum": 8637,
      "Ġnoticing": 8638,
      "Ġaboard": 8639,
      "Ġbubbly": 8640,
      "Ġvibrant": 8641,
      "Ġrepairman": 8642,
      "Ġsqueaky": 8643,
      "Ġairplanes": 8644,
      "bur": 8645,
      "Ġmoat": 8646,
      "ĠBunBun": 8647,
      "ĠMamma": 8648,
      "Ġweighing": 8649,
      "elvet": 8650,
      "Ġmoonlight": 8651,
      "Ġshallow": 8652,
      "shadow": 8653,
      "ĠAccidents": 8654,
      "asmine": 8655,
      "Ġbacks": 8656,
      "iggie": 8657,
      "Ġhaircuts": 8658,
      "Amy": 8659,
      "Ġmelody": 8660,
      "Ġchin": 8661,
      "ĠLeah": 8662,
      "Ġhab": 8663,
      "Ġpleas": 8664,
      "ĠTiger": 8665,
      "Ġswirls": 8666,
      "Ġstorms": 8667,
      "Ġnewspapers": 8668,
      "Ġchill": 8669,
      "Ġbund": 8670,
      "uggy": 8671,
      "ĠOh": 8672,
      "ĠCaptain": 8673,
      "Ġcommun": 8674,
      "ering": 8675,
      "Ġmugs": 8676,
      "ĠVroom": 8677,
      "Ġhummed": 8678,
      "Ġfreezing": 8679,
      "Ġblonde": 8680,
      "ĠAlf": 8681,
      "Ġsneezes": 8682,
      "hole": 8683,
      "Ġmiracle": 8684,
      "Ġerase": 8685,
      "Ġcowboys": 8686,
      "Ġdev": 8687,
      "Ġmesses": 8688,
      "faction": 8689,
      "Ġpepperoni": 8690,
      "Ġslee": 8691,
      "Ġsatisfaction": 8692,
      "Ġlump": 8693,
      "ighty": 8694,
      "Ġcompliment": 8695,
      "Ġcalmer": 8696,
      "ĠEr": 8697,
      "ÅĵYay": 8698,
      "Ġsquinted": 8699,
      "ĠVelvet": 8700,
      "endant": 8701,
      "Ġscattering": 8702,
      "Ġblushed": 8703,
      "Tr": 8704,
      "Ġsipped": 8705,
      "ints": 8706,
      "Ġclue": 8707,
      "venir": 8708,
      "Ġsuccessfully": 8709,
      "Ġleaking": 8710,
      "Ġsituations": 8711,
      "Ġsouvenir": 8712,
      "Ġoccasion": 8713,
      "Ġjoyfully": 8714,
      "Ġcoughed": 8715,
      "Ġmodels": 8716,
      "Ġpositive": 8717,
      "',": 8718,
      "isp": 8719,
      "ĠGinger": 8720,
      "Ġglittery": 8721,
      "ware": 8722,
      "Ġmeatballs": 8723,
      "ĠOver": 8724,
      "Ġsmartest": 8725,
      "Ġbruises": 8726,
      "immered": 8727,
      "Ġyumm": 8728,
      "ĠOff": 8729,
      "ĠJohny": 8730,
      "Ġweighs": 8731,
      "Tw": 8732,
      "Ġank": 8733,
      "Ġexplaining": 8734,
      "Ġscenery": 8735,
      "ĠWhoever": 8736,
      "Fluffy": 8737,
      "Ġlocal": 8738,
      "ĠHello": 8739,
      "Ġanswering": 8740,
      "Ġtickling": 8741,
      "bank": 8742,
      "ift": 8743,
      "Ġsnowy": 8744,
      "Ġscares": 8745,
      "Ġunfair": 8746,
      "Joe": 8747,
      "ĠAvery": 8748,
      "ĠKen": 8749,
      "Ġburgers": 8750,
      "Ġrewards": 8751,
      "Ġpressing": 8752,
      "ĠJasmine": 8753,
      "Ġtalents": 8754,
      "Ġpinching": 8755,
      "Ġshattered": 8756,
      "Ġwelcoming": 8757,
      "amboo": 8758,
      "amil": 8759,
      "etchup": 8760,
      "Ġpossib": 8761,
      "Jimmy": 8762,
      "Ġbulbs": 8763,
      "Ġteap": 8764,
      "ĠPer": 8765,
      "ĠChoo": 8766,
      "Ġrewarding": 8767,
      "sie": 8768,
      "Ġhisses": 8769,
      "Ġcleans": 8770,
      "belt": 8771,
      "Ġroast": 8772,
      "ĠSuper": 8773,
      "Ġrubbish": 8774,
      "Hmm": 8775,
      "Ġbound": 8776,
      "Ġpantry": 8777,
      "ili": 8778,
      "Hold": 8779,
      "eal": 8780,
      "Ġscow": 8781,
      "HE": 8782,
      "Ġrowing": 8783,
      "Once": 8784,
      "ĠCathy": 8785,
      "Ġtraps": 8786,
      "ĠPlaying": 8787,
      "Ġpractised": 8788,
      "Ġcrocodiles": 8789,
      "Ġbinoc": 8790,
      "oor": 8791,
      "Ġdigs": 8792,
      "ĠSunshine": 8793,
      "Ġteapot": 8794,
      "Ġintently": 8795,
      "Ġforts": 8796,
      "Ġsturdy": 8797,
      "scotch": 8798,
      "Ġminded": 8799,
      "ĠChickie": 8800,
      "Ġgroaned": 8801,
      "ĠMan": 8802,
      "Ġwhimp": 8803,
      "ĠThankfully": 8804,
      "Ġpilots": 8805,
      "ĠHootie": 8806,
      "Ġcells": 8807,
      "Ġmarveled": 8808,
      "Ġrebu": 8809,
      "Ġballer": 8810,
      "Ġtopp": 8811,
      "beep": 8812,
      "Ġseatbelt": 8813,
      "ĠBruce": 8814,
      "ĠSteven": 8815,
      "Ġtempted": 8816,
      "icious": 8817,
      "Ġhorri": 8818,
      "now": 8819,
      "Honey": 8820,
      "Ġpipes": 8821,
      "Ġstuffing": 8822,
      "Ġangrily": 8823,
      "amiliar": 8824,
      "Ġketchup": 8825,
      "Ġfinishes": 8826,
      "Ġsandpit": 8827,
      "Ġtunes": 8828,
      "Ġapology": 8829,
      "Ġbends": 8830,
      "Ġunfamiliar": 8831,
      "ĠOf": 8832,
      "Ġfunn": 8833,
      "Ġsmoking": 8834,
      "Ġmicrow": 8835,
      "Ġbubbling": 8836,
      "Ġdoorstep": 8837,
      "ĠNate": 8838,
      "Ġfireflies": 8839,
      "Ġcroaked": 8840,
      "mel": 8841,
      "ĠVery": 8842,
      "Ġinvites": 8843,
      "Ġtentacles": 8844,
      "Ġgoodness": 8845,
      "Ġlookout": 8846,
      "Ġmeadows": 8847,
      "Ġenergetic": 8848,
      "ĠLife": 8849,
      "Ġmicrowave": 8850,
      "jack": 8851,
      "Ġrunner": 8852,
      "ĠBrad": 8853,
      "!'.": 8854,
      "acock": 8855,
      "Ġsweeter": 8856,
      "ĠFelix": 8857,
      "Ġtugging": 8858,
      "Ġclut": 8859,
      "ĠDot": 8860,
      "Ġshyly": 8861,
      "Open": 8862,
      "Ġembra": 8863,
      "Ġchews": 8864,
      "ÅĵWeÃ¢": 8865,
      "Ġspoiling": 8866,
      "Ahoy": 8867,
      "Ġexchange": 8868,
      "ifi": 8869,
      "ĠGold": 8870,
      "Ġacts": 8871,
      "Ġmessages": 8872,
      "Em": 8873,
      "nded": 8874,
      "Ġcages": 8875,
      "Ġstepping": 8876,
      "Ġshrank": 8877,
      "lish": 8878,
      "Ġwatermel": 8879,
      "Ġstrolled": 8880,
      "ĠElephant": 8881,
      "Ġoverwhelmed": 8882,
      "Ġripp": 8883,
      "ĠweÃ¢": 8884,
      "Ġmoons": 8885,
      "umper": 8886,
      "rupt": 8887,
      "Ġlar": 8888,
      "Ġboards": 8889,
      "Ġslapping": 8890,
      "Ġcheating": 8891,
      "Ġprotection": 8892,
      "ĠTe": 8893,
      "Ġhesitation": 8894,
      "Ġ4": 8895,
      "Ġcaterpillars": 8896,
      "Ġcrisp": 8897,
      "Che": 8898,
      "Ġjets": 8899,
      "ulars": 8900,
      "Ġobst": 8901,
      "Ġgasps": 8902,
      "Ġdefeat": 8903,
      "Ġlull": 8904,
      "Ġdou": 8905,
      "ĠRat": 8906,
      "Ġchopping": 8907,
      "Ġinju": 8908,
      "ĠLight": 8909,
      "Ġpopsic": 8910,
      "ĠFifi": 8911,
      "anie": 8912,
      "otion": 8913,
      "sey": 8914,
      "ĠFly": 8915,
      "scar": 8916,
      "Ġconnect": 8917,
      "Achoo": 8918,
      "Ġfade": 8919,
      "Ġunderwater": 8920,
      "Ġmelons": 8921,
      "Ġfoam": 8922,
      "ĠIsab": 8923,
      "ĠBeep": 8924,
      "Ġaston": 8925,
      "Ġconsider": 8926,
      "ĠTre": 8927,
      "Ġbinoculars": 8928,
      "Ġplayhouse": 8929,
      "Ġalley": 8930,
      "ĠDoes": 8931,
      "Ġdemanding": 8932,
      "Ġcertainly": 8933,
      "how": 8934,
      "ĠJosie": 8935,
      "ka": 8936,
      "Ġpouch": 8937,
      "For": 8938,
      "ole": 8939,
      "Ġsection": 8940,
      "Ġshares": 8941,
      "Ġcrouched": 8942,
      "Ġballerina": 8943,
      "ĠRandy": 8944,
      "Ġcherish": 8945,
      "Ġslithered": 8946,
      "Ġmonth": 8947,
      "Anytime": 8948,
      "ĠGemma": 8949,
      "Ġfishy": 8950,
      "ĠSurpr": 8951,
      "racadabra": 8952,
      "Ġloyalty": 8953,
      "Ġbamboo": 8954,
      "ĠJackÃ¢": 8955,
      "Ġdifferently": 8956,
      "chief": 8957,
      "Ġguards": 8958,
      "Ġpounced": 8959,
      "Ġhopscotch": 8960,
      "Ġrips": 8961,
      "ĠMighty": 8962,
      "Ġpeacock": 8963,
      "Ġ''": 8964,
      "Ġtransformed": 8965,
      "Ġrecess": 8966,
      "anted": 8967,
      "Ġmeaning": 8968,
      "Ġdisappointment": 8969,
      "ĠPeep": 8970,
      "Ġfist": 8971,
      "Ġriverbank": 8972,
      "iciest": 8973,
      "Ġprog": 8974,
      "Ġunwrapped": 8975,
      "Danger": 8976,
      "Ġsqueezes": 8977,
      "ĠCarol": 8978,
      "Bl": 8979,
      "ĠSleep": 8980,
      "ĠOscar": 8981,
      "ĠChuck": 8982,
      "Ġicky": 8983,
      "Ġlanding": 8984,
      "ĠPatrick": 8985,
      "ĠMinnie": 8986,
      "Ġplaydate": 8987,
      "Never": 8988,
      "ĠTHE": 8989,
      "Ġrack": 8990,
      "Ġstores": 8991,
      "Ġankle": 8992,
      "oss": 8993,
      "Ġpokes": 8994,
      "Ġraking": 8995,
      "Ġsweetly": 8996,
      "Ġfries": 8997,
      "alled": 8998,
      "ĠAllie": 8999,
      "Ġcherished": 9000,
      "Ġerupt": 9001,
      "Ġnightmares": 9002,
      "ĠTears": 9003,
      "ĠMs": 9004,
      "ĠWhe": 9005,
      "cycles": 9006,
      "Ġamused": 9007,
      "ĠSandra": 9008,
      "Ġwhimpered": 9009,
      "Ġarrest": 9010,
      "Ġnapped": 9011,
      "Ġthie": 9012,
      "iring": 9013,
      "ĠWait": 9014,
      "ĠViolet": 9015,
      "Ġsnorted": 9016,
      "solut": 9017,
      ",'": 9018,
      "ĠCon": 9019,
      "Ġthrill": 9020,
      "Ġbirdy": 9021,
      "Soon": 9022,
      "Ġteamwork": 9023,
      "Ġjudges": 9024,
      "ĠWeÃ¢": 9025,
      "rum": 9026,
      "Ġactor": 9027,
      "ĠClaus": 9028,
      "gets": 9029,
      "ÅĵHow": 9030,
      "Ġcrickets": 9031,
      "edic": 9032,
      "Ġblades": 9033,
      "Ġmajest": 9034,
      "ĠDay": 9035,
      "Ġthunderstorm": 9036,
      "Ġcurre": 9037,
      "Ġmayor": 9038,
      "ĠFish": 9039,
      "Ġcentre": 9040,
      "ulf": 9041,
      "Ġshoel": 9042,
      "ĠRavi": 9043,
      "ĠMarley": 9044,
      "Ġgates": 9045,
      "Ġtickles": 9046,
      "Ġinjured": 9047,
      "Ġwatermelon": 9048,
      "Ġsacks": 9049,
      "Ġmysteries": 9050,
      "Ġgroups": 9051,
      "Ġthieves": 9052,
      "Jane": 9053,
      "Ġstyles": 9054,
      "Ġsnapping": 9055,
      "ĠMine": 9056,
      "rob": 9057,
      "othy": 9058,
      "Ġmiller": 9059,
      "Ġlumberjack": 9060,
      "ĠBirdie": 9061,
      "emy": 9062,
      "Ġroo": 9063,
      "ĠRita": 9064,
      "Ġstew": 9065,
      "Ġleans": 9066,
      "ĠStanley": 9067,
      "ĠSal": 9068,
      "ĠOuch": 9069,
      "Ġcreams": 9070,
      "Ġtemptation": 9071,
      "Ġtant": 9072,
      "isdom": 9073,
      "uster": 9074,
      "ĠShare": 9075,
      "ĠWilbur": 9076,
      "Ġboil": 9077,
      "Ġenemy": 9078,
      "Ġtownsp": 9079,
      "Ġkeyhole": 9080,
      "Ġcondition": 9081,
      "ĠBoun": 9082,
      "ĠBamb": 9083,
      "Ġintelligence": 9084,
      "Ġstructures": 9085,
      "Ġchoosing": 9086,
      "uess": 9087,
      "Ġspare": 9088,
      "Ġfrustration": 9089,
      "ĠJere": 9090,
      "Benny": 9091,
      "Ġhundreds": 9092,
      "that": 9093,
      "Ġding": 9094,
      "Ġcharm": 9095,
      "tern": 9096,
      "Ġruff": 9097,
      "uction": 9098,
      "Ġscene": 9099,
      "Hurry": 9100,
      "Ġwhir": 9101,
      "inct": 9102,
      "hings": 9103,
      "Ġauntie": 9104,
      "Tweet": 9105,
      "nces": 9106,
      "Ġheels": 9107,
      "Ġseasons": 9108,
      "Ġbanging": 9109,
      "ris": 9110,
      "ĠLots": 9111,
      "ige": 9112,
      "Ġswimsuits": 9113,
      "Ġsleeps": 9114,
      "Ġsupporting": 9115,
      "icest": 9116,
      "oured": 9117,
      "ĠMumma": 9118,
      "Ġbenches": 9119,
      "ĠBambi": 9120,
      "Ġweaker": 9121,
      "Ġcomputers": 9122,
      "Ġtantrum": 9123,
      "First": 9124,
      "Ġrebuild": 9125,
      "Ġlevel": 9126,
      "Ġlevers": 9127,
      "Ġtextures": 9128,
      "ĠNell": 9129,
      "Ġcommunicate": 9130,
      "sers": 9131,
      "Ġbas": 9132,
      "Ġnicest": 9133,
      "Ġtrading": 9134,
      "Ġhissing": 9135,
      "uno": 9136,
      "Ġbold": 9137,
      "Ġwiggling": 9138,
      "ĠGw": 9139,
      "Ġelectricity": 9140,
      "Ġtownspeople": 9141,
      "reled": 9142,
      "ĠJodie": 9143,
      "Ġluckiest": 9144,
      "Ġtimid": 9145,
      "Ġshinier": 9146,
      "Ġlush": 9147,
      "ĠKenny": 9148,
      "Ġalongside": 9149,
      "Ġdart": 9150,
[...]
